/**
  ******************************************************************************
  * @file    network_data_params.c
  * @author  AST Embedded Analytics Research Platform
  * @date    2026-06-13T14:20:49+0300
  * @brief   AI Tool Automatic Code Generator for Embedded NN computing
  ******************************************************************************
  * Copyright (c) 2026 STMicroelectronics.
  * All rights reserved.
  *
  * This software is licensed under terms that can be found in the LICENSE file
  * in the root directory of this software component.
  * If no LICENSE file comes with this software, it is provided AS-IS.
  ******************************************************************************
  */

#include "network_data_params.h"


/**  Activations Section  ****************************************************/
ai_handle g_network_activations_table[1 + 2] = {
  AI_HANDLE_PTR(AI_MAGIC_MARKER),
  AI_HANDLE_PTR(NULL),
  AI_HANDLE_PTR(AI_MAGIC_MARKER),
};




/**  Weights Section  ********************************************************/
AI_ALIGNED(32)
const ai_u64 s_network_weights_array_u64[4819] = {
  0x6f1e9fc0df7c407U, 0x109f6d8f20821f1U, 0xddfaed10130e060eU, 0xdb0911ffe60f0beaU,
  0xa0ccd2b11edf7e3U, 0xec1df71d0308943bU, 0x7601bd3bddaa4507U, 0xf9560a05eaf8d82eU,
  0xf61dddf419e6eefaU, 0xe41ff5f7f221fc1aU, 0xffe2e0f601071cf9U, 0xe521f6efd5fa090bU,
  0xecf0dbfcfae2e3e9U, 0xe7feeac6101114bfU, 0x1984c1cdf0d5f81eU, 0xf916eceaef3d19edU,
  0x724f6f7fe020201U, 0x1bdc11eff20b091cU, 0xeeed22d9f22af7e7U, 0x26e12fb7ff111cdbU,
  0x6fde60b16dae61eU, 0xf2140009ea0c21e6U, 0xd110e80d24041e14U, 0xe90329f6e924ff12U,
  0xd8819de51215162bU, 0xfc16fe0ef211f609U, 0x11fbfe0af205e6feU, 0x10e6e312fbe2e31eU,
  0xfe001dd9ec122813U, 0xe8fdd52eeadcd1e5U, 0x7ee190eee01f8e5U, 0xf4f7e3f225ee1705U,
  0x20021f7ef17fe1eU, 0x5e5e2faea0c221aU, 0xfffa0ee5ec10f3dcU, 0x1600ed0f0ff819ecU,
  0xdaef0bfd07e7fa09U, 0x14fb1230233e282eU, 0x17fe0dfe02f2e7f9U, 0xe8f4ecf6f918ed12U,
  0xf6eb1d080f041ce5U, 0xe6e5e80217efe804U, 0xe9f3e7fee6eb14f5U, 0x6e809f90ae3f60dU,
  0x101ff7fdf9d8ebecU, 0x8ede6f2e4df010fU, 0xdfe8fe08bffa25f4U, 0xe6ed05250410de12U,
  0x19e61215e81810f7U, 0xf8e7eb18e817fa05U, 0xeff40cffe013f31aU, 0xf718eb0a070e03f0U,
  0x1befe8f8e20214edU, 0xfb09f91be1f1f817U, 0xf1050e0cf2090affU, 0x6d31ff9f41ee419U,
  0xd8d6e51e00c4d811U, 0x12f1fe04300aecf2U, 0xfafb1c1b131101e8U, 0x1612eb0502071815U,
  0xf914ea1dfb10f2f9U, 0x12eaf0f5040b0eeeU, 0x23f51300ea07f513U, 0x6021809fe10f0f8U,
  0x24e1e5f6f10b1c07U, 0xe2bb021ae7ea03f6U, 0x8e6171cd8f00dffU, 0x307fdf4f4d9dcd8U,
  0x15fb01e2090d16eaU, 0x39f2f0ea15fc1329U, 0x100a00fdea00f7f5U, 0x1717fceefaec0c0fU,
  0x31113f1fbecfeedU, 0xfbdf04fe0afbec1dU, 0xcafc42f8e4ff2918U, 0xe7f5eef905292a05U,
  0xf42919f6432ef50eU, 0xee8faeceff82f36U, 0x3ef0df7e907ee12U, 0xafe1fef1ef70cecU,
  0xef5f41315faeb09U, 0xf8eadcf505da03e5U, 0xfaf30113fe0ef7fcU, 0xd8f3f4ea0de2f8f5U,
  0xd3d6fec6c7f7f218U, 0xc06fbe609d736U, 0xb15fd0fe5e1f014U, 0xb605f3dff500f80cU,
  0x2cbaeedc074c0131U, 0xc27bae61305e506U, 0xee0ff5e8d0e6f0f2U, 0xf2fa020f06f90813U,
  0xb7fafb0be600f1f7U, 0xac805497f520127U, 0xa610e4103123c5f9U, 0xe717f30eebef05f6U,
  0x10f503100709f214U, 0xee03f9fc13ed000eU, 0xf513f70b0e32e718U, 0xbe22aebe800e6fcU,
  0xf50deffef1fe0b17U, 0xf8f2e70dfeedea2cU, 0x401090dfce811e8U, 0x151ee703070a30d9U,
  0xf3fce90a0e1501f4U, 0xcf6ffe501ebeef6U, 0xe07f41e16eaefU, 0x150e0b0add1a15b4U,
  0xe8f414f8fd03eff6U, 0xf90bf1f9fcfb15f2U, 0xdf0f11407e406e4U, 0x13f605eeef0ff113U,
  0x10ede4feec09e312U, 0xe7e4e5fce2fb04f6U, 0xe9ebe5f007ecdffdU, 0x15dfebf30aeff4efU,
  0xe2de15d9e409e4e5U, 0xe909fafb0913efe5U, 0xeb160e05fb050eedU, 0x1006f50911fc16edU,
  0xfc020b0ae8ea14f6U, 0x108f0fafbe3f605U, 0xe8e504e5e9faebf1U, 0x5e31100ea0d16f4U,
  0x100f19f010f4fffeU, 0x2fdb0ae512f3f4f6U, 0xd903e65bdffcfd0fU, 0xed120c1a08161cfcU,
  0xfa10e91407f01213U, 0x130017e7f1fbeafdU, 0x1200060713e80ff7U, 0x3fff8ed17eff50cU,
  0x1f4fcfaee18f510U, 0x9e7ec0603f5e6e9U, 0x4e4fcea151c0305U, 0xe314f5f3f90ae514U,
  0xfafa12ebed1200d8U, 0xee10f812da0a0b07U, 0xeae901f5ef00000eU, 0xdffafcf4fb110adbU,
  0xaf5090725edf8f0U, 0x60df8f102f3f1fbU, 0xff080e04f703f111U, 0x1c130204fd15efU,
  0x1d19feff0024100fU, 0xfbf4f31777e9f8ebU, 0x7de2027fe4030f0aU, 0x7f2fc201be8ffffU,
  0x500f50ef9f7130aU, 0xfd0d06f80ef2fbe9U, 0xf30a06170501f607U, 0xe0cf809020c050aU,
  0xcf4f4ff0cf00c0aU, 0xeb00faffdb0afbffU, 0x160fe7e4f7dd05efU, 0xafcf206deeb0534U,
  0xe06f901f6fef809U, 0xc0beef7fd07f201U, 0xd6ece6f6480e15d7U, 0xfcf50af4fee40d27U,
  0xf10602f70a0af815U, 0xf6faf408f80207f7U, 0xfef1fd0d02f3f30eU, 0xd9ee37644efd20bfU,
  0x26ddf70407dafdf0U, 0xb08f8fb0904fc12U, 0x313f601fdfc07faU, 0x10609f00c0af708U,
  0xfafd030006fceb06U, 0x5fae9f1f4070608U, 0x3f500f40b0dfa0bU, 0xf0f701fbf9001d04U,
  0xf3f5f100f105f1f5U, 0xf3f0f0fe080b07f7U, 0xf3f10e05f0fef1f5U, 0xfbf602fc03060001U,
  0x216150cf7f0fcf3U, 0x1f2fce50f09f912U, 0x809f5fcf1030cffU, 0xa07f20dfdf501faU,
  0x8010201fa04090aU, 0x7f508f4ff09020aU, 0x60d01f4fe090bfcU, 0xa0807f1f9000af7U,
  0xaf3fa0104f7fbf6U, 0xf70afef8060d09f7U, 0xe8fcfdfce90af0fcU, 0xf5fd05f701f309efU,
  0x10eff0002f902f1U, 0xf9060cfef10bf805U, 0xfdf4fcf7f100feU, 0xdf108f603fb0a0aU,
  0xf30804f9080d07f8U, 0xf50607fcfcf204f2U, 0xf09f1f60c020d09U, 0xcffa05090cfe0c05U,
  0x12f03b0df4f7fe02U, 0xfd00ef0bf1f4fdfaU, 0xdf5fffd030300feU, 0x1f80b01f7090cf1U,
  0x30cfdf7000bf7f8U, 0x6fe01f3fefe0405U, 0xf40ef4f407fdfb01U, 0xf8f9060602070bf5U,
  0xf503effa04f707f4U, 0xf00406f7f6fd0b00U, 0xfc06f8fdf8fefb06U, 0xfdfe040df6ed0501U,
  0x103fd0cfafc0b04U, 0xf2e90111f109f0f9U, 0xfe0a0ef5faec9e11U, 0xfbf6fafc110208faU,
  0xeef2ecf90fef0901U, 0xdb08000ef3f6120eU, 0xdcf8050fbcf4fc0bU, 0xf9fdfa9331280ffdU,
  0x12f7811dfb0a05f4U, 0xf20bd1ee310cde8dU, 0xff03f0220edae207U, 0x110a08ecf500f9ebU,
  0xf000fbe7ee13fae9U, 0xc0e0c0d0300f500U, 0xfa08fa140310eaf5U, 0x1711312200f2e80aU,
  0xfa0f2d172afd1e06U, 0x4fd001c0a0fbb15U, 0x140c0d07ec090606U, 0xf306ecf910faee13U,
  0x322b0fb5ffdc35fbU, 0x2307d91332fbf620U, 0xee12f70efafae608U, 0xeff6fe04f4ec1512U,
  0xf504f60b06eded0bU, 0x7c58f9311cf5204U, 0x20e3d9e73608050fU, 0xeefaeaf1f61022c5U,
  0xf8010211f910fd0eU, 0xfcf8f80bffebececU, 0xf513f5dd00ed11e4U, 0x707fafcf813eb04U,
  0xeee7f40bf201ef15U, 0x51dfcf907ddfbefU, 0xf4040cf8f1fcf809U, 0xe3eb1100e226f6f6U,
  0x161302f4f5f10108U, 0xf4f914ebf10ffaf7U, 0xfd02f5ecf012edf2U, 0x71414f7d60be721U,
  0xf2f70af3f410ec05U, 0xc03ed0cff0004f2U, 0xeefffa08f3f814fbU, 0x507ecfdf30af801U,
  0xf6ecfd0d08020f11U, 0xfc0aeaf202130b07U, 0xd00030c0af0f402U, 0x13f409fff8ebf9efU,
  0x2911f622fcfbf90bU, 0xfe031108f9fc371eU, 0xfef4f61305ecf4f7U, 0x10f9ef0f0109f902U,
  0xef6001514010afbU, 0xfa0afc0eee05f611U, 0xf5f7fe111211effaU, 0xfcecfe0311f10b07U,
  0xf16eb0b0c0d06f7U, 0xfe0c05f3f0fe01f5U, 0x6b7050b0ae0fb28U, 0xfef51a0908f1f4d3U,
  0x11f6031714161412U, 0xcfef4f6fcf0f6f3U, 0xf5eff5ecefeb130bU, 0xeef908f6f40bf710U,
  0x6020ff4f50bff08U, 0xffe8030afce8ec0cU, 0xed0cf609fbf7f2e8U, 0xf5f10a010d04fceaU,
  0x8faf7ea0700150dU, 0x7fdf9ff0600edebU, 0x14edeefdfa170bfcU, 0xc05e11d05100d18U,
  0xfb1b46c61656f2efU, 0xfd02eed8d019cf17U, 0xdc1ce5f7cd0501fbU, 0xdaeb20e607e5ff08U,
  0x19ed0e4aea3f13bfU, 0x2413407e309cfdfdU, 0x45247f2c13ebf4f9U, 0x24e7be716e260854U,
  0xed23154514ebecebU, 0x1af1f50719e4150cU, 0xdefaf42507ca0311U, 0x1af0cbe7d20614faU,
  0x3de241514201811U, 0xeef503ecd8cdd405U, 0xa7f33cd5e704e532U, 0xe4e1f709dbd9c1d7U,
  0x9f80c061d09daccU, 0xf8fa03e6e8dfdbdaU, 0x7dbfbfce1b4fc0eU, 0xf630f252c6f2d70aU,
  0x1e1dfd0ba81e2fe7U, 0x90fd9e4f5cff60aU, 0xecdfe81e0c2af81dU, 0x5452320cfce4d40fU,
  0xf7161485dda9f0ffU, 0xaef04e1eb55c5f1U, 0x1d2202d31dd4c622U, 0xe81d1d09290209d9U,
  0x121b112906f50221U, 0xdceb1420f80c17d9U, 0xf4fddb0509f10b43U, 0x16140a2ddceb1efdU,
  0x1b09f5d7e6d8fb11U, 0xdcdc92dd6141abcU, 0xf8d801ca0ff6f6ceU, 0xf0fed6d1eefaf01eU,
  0x37fc1210bcf9e3eaU, 0xedcdeef8f3ea1920U, 0xf0e2d1aed2a2a28U, 0x1ff1f30e1809dcf3U,
  0xec0603312e0ae525U, 0xdddd00d236e01bfbU, 0x200ef60f0b2f16e5U, 0xdf9ebf42d080c1eU,
  0xb160c1ef21401f4U, 0x603d609cf210ce2U, 0x39ecf3fd0de6f6e0U, 0xf10139fdef371027U,
  0xf01720f6eee6dde4U, 0xee03d713fff8e3ddU, 0xf427f3fbe2e51b05U, 0xe909122429fd1b1cU,
  0x3f7f5fe1816ea33U, 0xe1e60cd4112a21e7U, 0x1fffef0420dfcb04U, 0xd40d0f2324d52205U,
  0xd05f000f8dfa9ceU, 0x140ff5f8a9a7d5e6U, 0xe6f4e5e72530efe3U, 0xe3f5efe4fee40c34U,
  0xb03e0e903ea0f1eU, 0xee2812011624072aU, 0xf32d14ef040306f7U, 0x82b100d32e5f528U,
  0xda0e509e03d31927U, 0xbfe2f60224d0121aU, 0xd9de22e13333ac22U, 0x29fd0de2dd2ceaf3U,
  0xe90de8da0513f3ffU, 0x9fc2d431cf8f31eU, 0xec139ac9e9b41a40U, 0xc28d2aa5e7473193U,
  0xfdb24d15a94cc46U, 0xd5a9228edc5b2257U, 0xe53fdc4a2fe7cbf3U, 0xb0dfdaa84c984d2bU,
  0xe8cc5d0b3cea9da5U, 0x19e1c732af2a5f11U, 0x4485ab69d0fa47dU, 0xff1143ec3e403aefU,
  0x44003530494fc3e0U, 0xea8e4f5a72dabc3U, 0x21c5f1d3da6faad6U, 0x551da5d5ce634d66U,
  0x1ffc225f5b08e630U, 0x39fbfa920243eeadU, 0x519943d714ac93a3U, 0xdf65a6c65a155042U,
  0xc01a37e4726f9f72U, 0xae750cd684273c6U, 0x2beb42135e1a8ae7U, 0x2c3925b59ad402bcU,
  0x72ca254a3f5c26dU, 0xfeb7e0430996f03cU, 0x91a0595bc1a8bfbcU, 0xdaa29315cbe91ac9U,
  0x7026a37091a6eeacU, 0x8adec2b41c58b2e9U, 0xbfe268eeedf848baU, 0x4bfc34b725328306U,
  0x9cd8df65c5c0558aU, 0xcf05a3c0e70f3cfcU, 0x17caad6a11d80e74U, 0xcf5a582d0bd829d1U,
  0xdadba4edd9144107U, 0x235d8246f2194963U, 0x66bf08e2f2c428dbU, 0x4ea1394b54d91f1fU,
  0x6c136757b72f319fU, 0x576deb30583bf7beU, 0xf6009bbb9e53263dU, 0xdd26a7f2734b038U,
  0xb7d01424bda41b21U, 0xf95518c4cb1516bdU, 0xea16e8f14fd5485cU, 0x7ef79852e24a42f5U,
  0xddc57bc84d431afU, 0x134052ecea78feeeU, 0x62d2ac5222cb062dU, 0xcc1a722a6aa9ef6cU,
  0x21abab105f0abc1bU, 0xc321111bfb3c964aU, 0x30001d5d1bb7ffa3U, 0x3fba5e3d3a60bd5aU,
  0xe9b3682d335ce0ecU, 0x9647d7a4e9db490bU, 0x1acb9b3c9412b982U, 0xaf2cb1c91f3c46faU,
  0x532c5ef0c1005e4fU, 0x11697e2a6451dd74U, 0x283cc269fc54c29dU, 0x59ce1286d262bcbU,
  0xf73cb4a8476b6a50U, 0x2a41e374b23928b4U, 0xb8b459d5325bbf5eU, 0x68a8f81c110497fcU,
  0xb2de4fbc7a27dc97U, 0x19e8a3a9af4d3678U, 0xa29b64264443bf08U, 0x11ffb79f0c5a1b4eU,
  0x2910528d2debdd40U, 0xae517ec041b0d0dU, 0x17f4e7fe060c141cU, 0xfffef9faec01f0e9U,
  0x220518e7ff0505f2U, 0x153536f3f3cc18f2U, 0x42edff10030ae80aU, 0xe1272226fb41151fU,
  0x19fbe9d2f700f2e1U, 0x100700fb2114fcf9U, 0xdbfd1cd4f7f80decU, 0xfd06eaf7fdf710ffU,
  0x16f3080c1905061dU, 0xfd18ea050afb12ecU, 0x2010d816e3251d04U, 0x2bee054f2d20f512U,
  0xf7ef17060efbf4c9U, 0xdf108f5110d021fU, 0xfde90103e8050cffU, 0xe71d1611090726f5U,
  0xee7812d0601ff0dU, 0xf304ed10f50a0afeU, 0xf7f4ec0b1416effdU, 0xe9f811f9fc0907f4U,
  0xcacaf5e6d62e0ddbU, 0xeb002942131c03cdU, 0x18ed0b15f502f20bU, 0xfd08e8f104e0f019U,
  0xf1fff91e070403f1U, 0xfecf50310180019U, 0xf2080a0324f8021aU, 0xe5160efafe18fdeeU,
  0xf0efedf01100141cU, 0x4ff0419ec0009faU, 0xf1502edeaf71a13U, 0xefffaf904100de9U,
  0x7080f1c1a15f3f9U, 0xfbe604110ee405e3U, 0x1409fe08f5fbdfdaU, 0xc000dec08eae5efU,
  0xf3040307f71302ffU, 0x81009f9f50707fbU, 0xb00f90908160f05U, 0x7e7edebef121311U,
  0x8eff0e8f9f4f404U, 0xedee0004fb0c0213U, 0x24f40dea1917f800U, 0xfb001e26e7eb380bU,
  0x2050008f3f2e7f8U, 0xf519eff00f07e9e4U, 0xece919eae515e30aU, 0xfeed1016030ef7ecU,
  0x1801f1090b191cf2U, 0xf700e6f402f8edf1U, 0xf6f6f50216f1ec05U, 0xefecef0d10eff10cU,
  0x1f01f6fe05fdf8e7U, 0xc05ebe3f4d60802U, 0x1a1108fbfaf8efeaU, 0x11f1ec011310f90dU,
  0x7ebf0f9e9fd1307U, 0xebfb060d151304f2U, 0xea0e0911ed0bf905U, 0xe8090de30818edebU,
  0xf3e7f40ce61102ebU, 0xf7f7fd08140015ffU, 0xa00f221f40212eaU, 0xf0fee70717e8170dU,
  0x10f1f7ec1aee2007U, 0x5e311ef0016f6f9U, 0xd20809ca060efafaU, 0x2942ff084602ded6U,
  0xe5dff4d206ea1cd6U, 0xd8ed160016f6ed1aU, 0x1e228c6ca403bb2U, 0x1750166e3a29d000U,
  0xdbf6ea15dfd9f348U, 0x1a6f2e2a1ddf1a2cU, 0xe728e11620f9db18U, 0x3e22a0100f208U,
  0xddeb040d1df4ff0bU, 0xf427091c1e0efae1U, 0x1cf003d8c4dcfedaU, 0x2a281dea320e0d0fU,
  0xe5f41bf343fc04c0U, 0xb70f546f7baede1U, 0x10fdf4f5331a0ae4U, 0xf5e40b0c211708daU,
  0x27fec1e3f303f912U, 0xdb2401c1fce4032eU, 0x233ce0dff01090cU, 0xe40214ebde02ec0dU,
  0xfffa141517e2fbeeU, 0x3804db04f82916f4U, 0xc8e616bd1a4d7f47U, 0x29381ef6e80b2204U,
  0xf9fce311f9edf7b9U, 0xd7e7dee9dce80217U, 0x9cc05fbfddb0715U, 0x5e7faf9dc1d0c18U,
  0xff1936def9ef21fcU, 0xf5fa05ff25f6062bU, 0x18dbf6dce52f2721U, 0x35fd0811eb1bde1aU,
  0x3e0f1b3ed0f20bd9U, 0xe31402291824df0fU, 0xa28d3f5021d300cU, 0xe7e6f216ecf201ffU,
  0x1215d213e20bf2dcU, 0xe4e8d7f005d7150fU, 0x9ddfb081806ddddU, 0x17e6f8ecfc15160eU,
  0xd8f301210de5e910U, 0xf4eddb0de9140c1fU, 0xed2205f622f317f5U, 0xecdfee2117e303e8U,
  0x250c23de07f8031cU, 0xd7fce6e104f105f2U, 0x120116d4273bff45U, 0xf1fceddcdce0ebecU,
  0xd7121bed2509dde2U, 0xff11e5e5f21123ecU, 0x6d902edfaec0fdcU, 0x1f0eee0507140c20U,
  0x1801e8f3f107011cU, 0x1afb01f8faf2f73dU, 0xf7323ec5d8fb0fe8U, 0x28fdf5f0ec6800f2U,
  0x12211feb183f500fU, 0xe2ff131a07f8e90aU, 0xfc12f5021f07ee0dU, 0xf9ec2cdbfa10211fU,
  0x215e106f4eb08f8U, 0xc3c7cde6f8231204U, 0x41eee5efdedbfdf3U, 0x18db090ee2020001U,
  0x11ecd82c1410e8dbU, 0xeed70b0d02eefe18U, 0x210c1ae4fffafe29U, 0x2108f0f3d3db1d04U,
  0xdbd41908f823f60eU, 0x4868f1bb69bd979fU, 0xe4f4530fa59bba46U, 0x38a9bb4af63240f3U,
  0xec42e6a96675a46dU, 0xa660170b2f2dd7e7U, 0x3a6b474ea33a1336U, 0xa15ad33ff60c37e4U,
  0x6466951bba756823U, 0x2ba20fa4005e423cU, 0x6f1adc98c3f8a11eU, 0x6b22c6955439a76dU,
  0x146ad6b03e2b3e4cU, 0xf7d9dc48e5a3b8baU, 0x344689e7ad93dcfdU, 0x52a56b17c94c27b5U,
  0xfcb5a1ef0e1e0859U, 0xc7f8b051e4e40e3dU, 0xc797a1cf76242a1eU, 0x98f40501f2baa8caU,
  0xfec5dc549c9b205bU, 0xd138aed6d5f8e414U, 0x4f0a1fabc1671cb9U, 0xe60efdd5a5cfab72U,
  0x463d199abf1421bbU, 0xe05921f540a097b4U, 0x309f553e99f24e3bU, 0xd7b51fd205dba85fU,
  0xfc3226215c4843d6U, 0x92260a3f852f92bU, 0x18be41c5e4f5a15cU, 0xeb0afa1fc050fb98U,
  0xe26d173dbcb46bc9U, 0x6533319f5fb470acU, 0xcd9df4442bc3d02fU, 0x43e1e847a12aec43U,
  0xce35449caebb4aa0U, 0xb55e2fd84f22f658U, 0x11b26ce5b0fa20e6U, 0xb1a6093007bebc52U,
  0xa35b5854e8203259U, 0xf2d45a487236686aU, 0x656b1d26a659a217U, 0xfdda450aec08c954U,
  0x2e6d67ae9f9f7031U, 0xd55a28fed5bd3c48U, 0x170d817abe07166U, 0x151d067f612f0b42U,
  0xfacbf5dd0d991904U, 0x64defe15a5ba74f8U, 0x44ef3661fdfe39b5U, 0xecc012d3d62ef26cU,
  0x4ef4c545b3b11b54U, 0x270e9af1b14aceabU, 0xcb74566bb15b6beU, 0x4894c1d62afe74c3U,
  0xd403aa4e5d1264eeU, 0xb3edc45ddc364696U, 0xfaccb6c7f80ac542U, 0x3efe29ab4b6a2a0fU,
  0xe459b6d0140d980cU, 0x9a0d5919005637adU, 0x3fba3344b30cb25dU, 0x8732034ab12622dU,
  0x5ad1bcee6cd06536U, 0x1f103b5168f9283dU, 0x16015df2c162edb5U, 0x3de33ed6fc9938c3U,
  0x2b634c4ad8071cb9U, 0x2ae82d491534b7b4U, 0xbd05ce9808d91b6fU, 0x3d0ae42135390b67U,
  0xfaea2401015d1cdfU, 0xd5faed1006eefe2dU, 0xe30a62cbe60a7f51U, 0xe4a1c0ed14ef180cU,
  0xfe040b17353c12cdU, 0x3022f24128110b0fU, 0x71d0bfbe9050fa8U, 0xf00802cc02e509f1U,
  0xbcfbef0ced10e4f5U, 0x1405f4e7e7070debU, 0xf4fe7801295618e0U, 0xd408f2efe8f20609U,
  0x2619beedee21faecU, 0xc6f6373e0d22fcU, 0xee0d051514071daaU, 0xd419e6d1d90de3faU,
  0x15eb09fefd08eb24U, 0xec02eb0f13e1f026U, 0x3e1ae4e126d344b6U, 0xce02f4e80e101890U,
  0xf510012afcfbf5ffU, 0x1f0216d5160ef912U, 0xfb12100812d00f1eU, 0xf535e3fb1ee8c7dfU,
  0x1efee55f41600df8U, 0x4b14fe2b18051e04U, 0xf5f0fc120a056016U, 0xd4fc0c17f3f3f503U,
  0xdbfc1d1d2205041aU, 0xe3050b0cf40a2002U, 0xf8edf6f4ec13360aU, 0x11ea24f401ed0114U,
  0xe8a94302ea15ead3U, 0xeaf8ead63106d537U, 0x2a0f12fff4012c15U, 0x13d51214082a00ffU,
  0xa14cdf9b71a0e10U, 0x2615e4fff2e81af5U, 0x17df001d05ed0f19U, 0xe906f80b14090f03U,
  0x19131d0eeeeedbdfU, 0x1409ea02f9dffb05U, 0x11f9fafc28e9080fU, 0x406e8fce1ecf1eaU,
  0x21f9e61603110d21U, 0x2b0cfaf102cc2511U, 0xe8ffe2f4fcdd03f5U, 0x2002ef0300ed090fU,
  0xef19dbe608f3e9faU, 0xefce70eeef9eeecU, 0x18f2f608fafe0d13U, 0xe4180fea04f3050bU,
  0xfb0cebdef10f13fbU, 0x604e900f9db2817U, 0x2524f6efe208da11U, 0xf60000dde8e3fa23U,
  0xd2f3ffc8baf7ebfaU, 0xe2f20fe90bf7f205U, 0x14fef4e3fadcf2edU, 0xfbeaebf0f207ef15U,
  0xbff0ee4fb160be7U, 0x3bfb14110dfafd07U, 0x2d43316508256b3eU, 0x27032834ede1d6f5U,
  0x24e3e82b000a2807U, 0xd14181300f8ed06U, 0xff70dec1bfa1910U, 0xed24f001fee2fb17U,
  0x51d28e0f502c111U, 0x1911e209fe1cd9e2U, 0x7efec1d10f9f910U, 0xf8160dde1213e305U,
  0x101110aeefd3c15U, 0x6bf525fa072ff3f8U, 0xde13131d5cac1933U, 0x6bc42274c202ee02U,
  0xd4f5de3226a4a6ecU, 0x35fe1cdb0adae5d2U, 0x12fceffb160638c0U, 0x2527e6eff7230601U,
  0xf1fd1f0b1c102918U, 0x1028e8f718f417f4U, 0x140bdadcbc50f039U, 0x57fe0a3604ff06e6U,
  0xf0eee1f6fdfa357fU, 0xf9ebe2e707f3e9eaU, 0x8f700190d12ff13U, 0xf905f4fe3420efe9U,
  0xcf1bf90210ec39f7U, 0xe9e0e51216ff3136U, 0xf9060315f9f716f0U, 0x170e23e4130610efU,
  0xeaeb204f300607e7U, 0x3de2e4ddebdc03cfU, 0x1e20080bceeb1562U, 0x211ad4dc22f304e3U,
  0xfafbdcfae7d70e0bU, 0x1d1715140501c60aU, 0x4d90d121a0bf81dU, 0x10080be124f7ec42U,
  0xf6fffa10161839eeU, 0xf302f8e716e8f11fU, 0xedeffe250f203417U, 0x200317070c2320e8U,
  0x18e80222df18ffe6U, 0x30f5f62504fdf2f6U, 0xff30df017233409U, 0xebe9f718faf7f7ffU,
  0x261ce8db00eff3e8U, 0xdd1aefec041814e9U, 0xe1eb0413220e1bfdU, 0x11fc00f4f9dbdcU,
  0xe91b0821f7e206f8U, 0xe0aff2403f8f512U, 0xd21040003ebef0aU, 0xe0e1f810fc3a1c0fU,
  0x14eff8241d0e2bf8U, 0x8f6f3d9f10ff4f2U, 0xdefe1ced05f405f1U, 0xfbee13fbfb13ec03U,
  0xe3f3e61a03f61df7U, 0xf6ece0fefeefeeffU, 0xe3e5e9fd02ea23e6U, 0xdff2e9e118f8fffbU,
  0xe4f105fdf104ed1fU, 0x1f176cfe07f2f739U, 0xe91df4e92a3d0639U, 0xe5f0130de2f1fb10U,
  0xe2f90b03e108ebecU, 0xf7fce2f9e5f3daf0U, 0x10eaf801ef1bdc09U, 0x1a14ed1c0018fcdeU,
  0xc06e103f607e403U, 0xeff521ecf037091aU, 0x31021110ee170f28U, 0xea0216fa10fae515U,
  0xec081b12f427fafeU, 0xfae5f41a11f714f3U, 0xae10ef0e8fb2101U, 0xf9f90ffc0e0c8553U,
  0xff08fdecf6fbfefcU, 0xf1020f09030c10f7U, 0xeedbf60be8f811f6U, 0xe4000108e2f8eafbU,
  0xf315de91000408e6U, 0x8f781fefc11f3f9U, 0x809fa020902e691U, 0xfdf4f0ff06d9fe06U,
  0xeef30e03f2f9fde4U, 0xecedfffc08000512U, 0xfbfb0dfe04020703U, 0x606f80bf2ebf2fbU,
  0xf0d0a16e8ed04f0U, 0xfc1e150e20fa0a1eU, 0x810160f37e1c4e5U, 0x8050514070a0d09U,
  0x9f9f51001effbf2U, 0xc35feb5e5f04af9U, 0x2100f0051cf9d937U, 0xf060af1f501fa0eU,
  0x5fdf6f603f2fa0bU, 0xef03f20afdf10cffU, 0x4bcad99f9f730fbU, 0x10fbf60b3207052fU,
  0xf3f3f5f502f9f4c2U, 0x1070a0d01f60cfbU, 0x8f7f602010410f5U, 0x10f01f4fff601eeU,
  0xf012ebfc0afdf50aU, 0xf7fe05f3fdf0e10bU, 0xbf5f503fcfef1f6U, 0x16f0fbf70110f9f6U,
  0xef7f308f4031002U, 0xfaf7ee0aebf0fb08U, 0xf00ff8effcfb08efU, 0xf804f0fb0d11ed03U,
  0x116350bea11ebf4U, 0x9f6f50002edf004U, 0xf10efa13fcf8fcf7U, 0xeb000bf8f1f009edU,
  0xf4fafa09feeef6faU, 0x8fc03fb0b10f60dU, 0xfdf2f5eeebf00302U, 0x4f9eeffecebeff4U,
  0x605fa00fef30b06U, 0x25130a25e9060a05U, 0xedfbef0710ea2811U, 0x10020712f9fef3f3U,
  0x8f001fa01fcefeeU, 0xf0dfe03f3fa10feU, 0x901eef9fafdf9f5U, 0xb0e0409fe090bf6U,
  0xf10dfdeceefb05f3U, 0xfb04060603eb0a0bU, 0xffeef0f808f60afeU, 0x17af1413f5fcf533U,
  0xf8fbf007f2fd13e9U, 0xfefb12010af4040eU, 0x13f904f40008f6f0U, 0xc12ff0bf1fff3fbU,
  0x11f7f5fef90808fbU, 0x10f09f8f10c03f0U, 0x7ed04f9ee020009U, 0xffebf40ffb0d02feU,
  0xf7f3f50deff409faU, 0x9ecf10803ff0106U, 0xeaf30df9fc03ee08U, 0x512f2f9fcf60009U,
  0xef2df080e1117fdU, 0x3fe0e3071369feffU, 0x1f0f1a4a1800fb50U, 0x2f6df2f450a6e2bcU,
  0xab1bdc2f171a3216U, 0x32cc4e3c51f02e0U, 0x1447e51223da22b5U, 0xc7cbea1a03393226U,
  0x23f47be36c234a8U, 0xcee7201b3cfa4b13U, 0x23337cbd0100e21U, 0xc82a0b07bcbac9e1U,
  0x24cee8d447c61be5U, 0x3ae907cedbe5c81aU, 0xc50435d3f8d3e6dcU, 0x36bbbef4d328f2fdU,
  0x1713cce8f6afd7e0U, 0x3458417eefd1506cU, 0xcb7e74ce0e30c515U, 0x152bd0bc1e131001U,
  0x37cb05df0733c9c1U, 0x23dc029d12f4cedU, 0x1638d31f181bcfffU, 0x12383012e5ae29c6U,
  0xf40441f6b11a2658U, 0xf62554fa1fd23eadU, 0xf4cffc3ae23733f6U, 0x1af105c8d6de66d8U,
  0x5942223751522051U, 0xeb457c09fcf6b71aU, 0xef2f12cfe8fc2c1aU, 0x5f3d01646b016c3fU,
  0x19ae4ebbc7323114U, 0x44144d38f5ebfd11U, 0xf00650e5342c19b8U, 0x1d1b3028cff7e1ecU,
  0x102cf2e4163d2869U, 0x22f52a1fec3306fcU, 0xf7151afcd2cee02aU, 0x4ef80806105a0040U,
  0x29551a3af5e122d4U, 0x2d35edd22a000f56U, 0xdf2cd62a46033f0fU, 0xe756310e47f0f1ddU,
  0x38da14f5e65bec45U, 0xe00412d8c022e62cU, 0xb07093035fa20e7U, 0xcf01d61edbe40c38U,
  0x2d1ade0231e10a0eU, 0xe62a282217f552d0U, 0x30e642323ecbf3e5U, 0x12f45436f7501a4fU,
  0x4feef9f6403e1728U, 0xd4136d24dd4c314bU, 0xcdc581a2fef0b2bU, 0x372a3859494d3439U,
  0x58fb1a745219e93cU, 0xc9d4edfed2e400f3U, 0x6b32fb1526332ce4U, 0x52fe0d4a07490f45U,
  0x601315380ef33a53U, 0x2066dad314de2c43U, 0x5c3b220fd87f39e4U, 0xf8ecff3d56e91a24U,
  0xfad7ed48ea2e2400U, 0xce11e814fbd73118U, 0x603d3cd2b0f2633U, 0x75155a4206d5a61eU,
  0x1fc20b03095e1ffdU, 0x1d40454412044c46U, 0xc2cd5616b8dbed3dU, 0xfa1b05bacc222b43U,
  0x18f9f10316fc00fbU, 0xf2e916f4100615f9U, 0xe2e42029f50c100dU, 0xd71432fefe0bfc13U,
  0x1077e2e8eb412029U, 0x71b703040714ed10U, 0x4226dbf5f073b30cU, 0xfb0ee62214f914f7U,
  0xe91a0c04e608f8fdU, 0xfef9f9030c2df8fdU, 0xf80ff1ec0cf3f5f1U, 0xfc15e9fdfa0a02U,
  0xd6d623ee0511fb00U, 0xbeebcb04ddd2fc04U, 0x4d4df0339280cf7U, 0xfa08010803f416e9U,
  0x19f7effdfd14f8f1U, 0xfc5a0910dc0205f6U, 0x201cc120bdfe6d4U, 0x3ed0bfe1ff6e8fcU,
  0xededfb07090508eaU, 0x3071207f40c1aedU, 0x7f7cec2cbdfe02f2U, 0xee9d010fdd5eb45U,
  0xee0c10e4f830f004U, 0xe0f90df1fff80b0dU, 0xf7f1fb01ffed070eU, 0xef191b03effc1611U,
  0xeffafbed04edf4f4U, 0xf1f207010500d4e2U, 0xf807ee0a10fd0bf5U, 0xf3fae708fefff90aU,
  0x112050f0beee1ebU, 0xf80ee7f10d00e706U, 0xf0f8ea10070509f4U, 0x20180610fbf81319U,
  0xe9021efdea0ef925U, 0xf31000eefdfc05f5U, 0x100006fdeafdf712U, 0xfff2f0f3141306edU,
  0x12eef102eef9ff06U, 0xeed18f7f510040cU, 0x13f314000510eaf1U, 0xf01008f7f4f1f70eU,
  0xf1070eec0e08ecfcU, 0x5e6eff40ef90c07U, 0xef04e7faebcbeefeU, 0xfdf0000c0de703f2U,
  0xf5e6ee10f7f407edU, 0xfeffb0bf0fe14f2U, 0xf10f01f4f90af702U, 0xf5edfa00e7f9fcf8U,
  0x313f305e908fbU, 0xf2fe120b050dfce9U, 0xeef2e8f7f018f6f1U, 0x3e60efd20e50010U,
  0xbf21d01f31f0c5dU, 0x7170e0506fefcf8U, 0x130007ecf9fefaf0U, 0xf41108e8070c0bf6U,
  0x2f5130208f00aefU, 0xfcf7e9f71415f9ebU, 0x1208f2f20ef6fde7U, 0x1a040b0209100307U,
  0xf814fb120aff02efU, 0x1feff00e5ef0aecU, 0xe5ed0203080010f4U, 0xeff00d10f5f72325U,
  0x1610faebe2f0fbebU, 0xc2f1f18b4def01faU, 0x40283cfb11071ee7U, 0x18e70105e0b1fbf0U,
  0xdab1fb0c2f011e10U, 0xebf8130ed100fbf8U, 0x9a07d6d7011b01d9U, 0xdcf41313f802ede7U,
  0x2cdb65e2b7000595U, 0xe0e1eb480c0d1b09U, 0xfb2def32d900e316U, 0x10bf7080a23db06U,
  0xf6df16fbd9f9fffeU, 0xfafcde13f3a1e6ffU, 0xff120924d2262fdeU, 0xf6dee224dcf20612U,
  0xfd08efa1b9efdc9dU, 0x2425fc0c20f30047U, 0x90a281e0efb26f1U, 0xd160ecb2bfd05fdU,
  0xbb714fcf7d6ea08U, 0xd0102bd928a9fc0cU, 0x1dbedf80ae220efU, 0x15f115e411e6ddfeU,
  0x302618f208eefcfdU, 0x465fe414efec1741U, 0x1136b58e81073822U, 0xdd21e60a42192b1aU,
  0x1a06f4ec38081fefU, 0x27fafbf704111041U, 0xd713eaff08e61006U, 0xffe3fb17dc3bf213U,
  0x39d2260719f628fdU, 0x160718f8f3f001e5U, 0x3201ceb94debe21eU, 0x112141004619e9f0U,
  0xea1e1013e7271616U, 0xedfd32d9fb1a081bU, 0x291cc5d1deee00e1U, 0x7f6f724ee29f224U,
  0xfae6ff18e7f60017U, 0xd07effbe12f1920U, 0xeff5e1f8ee1c1605U, 0xf2ecf9e1fced15f9U,
  0xeef9fff20f09e409U, 0xffe1062ee5fdf0f6U, 0x80310f50bf0eefeU, 0xe3f8f326ff0818edU,
  0x4ede4b4e119da06U, 0x12edfa0aebf80e17U, 0xf90a070ae51e03efU, 0x1004fe141eee1aeaU,
  0xe1e9ed0fe20e11f8U, 0xfdfce9051717fa02U, 0xeec28e70113f904U, 0x4fe0edefaf7fa05U,
  0x211e0cf6f0e8e230U, 0x6e1fbfe21fced0cU, 0x2611fb17f50616d1U, 0xf7f10d261bfa3a4fU,
  0x12e614011ee2f60dU, 0x14f5e91618e8ec1aU, 0xf81f0afff7f9111aU, 0xf7160efbfd141a03U,
  0x14e0e9f7fef5e3e3U, 0x242a2115ea03e0e4U, 0x16fef3f9d4061409U, 0xeb13cecc4b010a09U,
  0xf50304f6f103e1e9U, 0x17070a171aeaebb1U, 0xe80eeef5091efeU, 0x3f6382d050e06f8U,
  0xf500230fed470909U, 0x2c1e0b06e0f2d43aU, 0x181ad500042803e7U, 0xfef5120c39f0cef6U,
  0xe2c9eb810e1410f0U, 0xfceb0edbee040fU, 0xf31c100b15fbdf0eU, 0x16dc1be212e9e915U,
  0x103ffd71fe405d9U, 0x300e8ddfce91de7U, 0xedfa07060eebfb0cU, 0x80f0a0b32200f3dU,
  0xc0e5f912d71df0e1U, 0xf0e71deda9e0ccf7U, 0xf1b9f88e111deafbU, 0xfce6f5da1300e5U,
  0xea21ff02e726e61fU, 0xef541110f7e5f1e3U, 0xf6da1214e9f01204U, 0xf4c61400b90a2bdcU,
  0xff09d5180bf6f9deU, 0xf1e814ec1f0ae81aU, 0x923f80df2d404e3U, 0xf09fb1412f228e4U,
  0x27c796cef4233409U, 0x3e9ed32db231b47U, 0x5e0d43062c1022deU, 0x36fbd10005ee2efcU,
  0x19160b19f1181228U, 0x240d02e416f41f12U, 0x1bfff103270b16f1U, 0x151ded0b03f401faU,
  0x8eb1b0715e616f5U, 0xef1afac74ffb0f09U, 0x2cf012060ef44621U, 0x18fd0a082417e10eU,
  0x59ce12ef00f9e603U, 0x1520e6ddf5f90aU, 0x121efce400f9f315U, 0xf20ff9f21208151cU,
  0xe0beb0dfceefeffU, 0x1204f00ae5feef0eU, 0xfcf3f1e20900dfdfU, 0x150518f3fd1317ffU,
  0xbfa201cf8eed113U, 0x131af3fc12f9e6deU, 0x2902fe06f3efecf3U, 0xf4e6da11eb010ad8U,
  0xe9090b100e190215U, 0xf1fb14d612f7ffU, 0x19faeaee0c0c0ae9U, 0xe0c19eb02e3160aU,
  0xf5ee180a0eed1701U, 0x181eed0ce2e50411U, 0xe717f0f511df05daU, 0xee290007360824fdU,
  0x1312250df1b4c2e0U, 0xf60305d80509e014U, 0xe207e1100df10bd4U, 0x81feb10f116f1e7U,
  0xdcedede202f9e608U, 0xf7f5070e0dff031dU, 0x501341190bfff71aU, 0xfc14010724611af5U,
  0xf91302e6110915fbU, 0xfbeee92403f4f50aU, 0xf604fe140b08f211U, 0xe90e00ffdf07eeeeU,
  0xe520fc20f0e30fdeU, 0xfb1a000219011903U, 0xa691569c5d97afe7U, 0x4ba62f210daf9133U,
  0x6987fb9534e1cc1U, 0x87251d0a19b653a1U, 0xf8e9e869942f937eU, 0xe705ca0b520b9efbU,
  0xdebd072d7c756794U, 0xad7bc6d564cbc1e0U, 0xe4ef05d2f5cba0f3U, 0x4cedf95e6d73a3fU,
  0x8c02c4ba39acd311U, 0xf66300d8986b3cb4U, 0x44cb0cc4b239766aU, 0x1e272fd1dfd95d6cU,
  0xf23b71422fcecdeaU, 0xa117c6e66ed0bea3U, 0xd4dccbbe07ecbf5dU, 0xd4e67ab3cb2d4a03U,
  0xea6b11dffb134a94U, 0x3393ab176e4387b3U, 0x265eef112fd0364eU, 0xd1fcb1c032a5e20aU,
  0xb7a3d0212d096ba3U, 0x1d4de66f623ea43U, 0xd09971c7b28fae29U, 0xc5a9fefb8846b2e5U,
  0xfd5bd44d21a8470cU, 0xed18d0a064955b82U, 0xe07ebbdeffd2bebU, 0x59057e8b1f2aaa76U,
  0xd7cafbe3c065c731U, 0x6462a08cf360142dU, 0x7dd2f55191c9cfdfU, 0x8c89cbfb1937f7d9U,
  0x287bf72b5a3a1465U, 0x3a45e1efd6def5e5U, 0xca4f94121ac95cc0U, 0x46654c3fad7cf974U,
  0x6e0c55349e01c979U, 0x40b0a5dbbf3bedd2U, 0x7a24d3bc41933cf0U, 0x15eaddb546f36d1dU,
  0x4d2b61f30233cbd9U, 0xec9ffb301e52a985U, 0xc3a898ad09136b8cU, 0xc720374bf02d4d99U,
  0xe628adc59329aa24U, 0x82725b2d100ab3fU, 0xae0bbaa747667b1fU, 0xafc5d275ffd3221U,
  0x5f0950bfadf82f01U, 0x31b7f66f96126abaU, 0x8ea2b11c6b7e61e6U, 0x10b529724334d7b4U,
  0x988c741468cb473aU, 0xd09f291253f2f53U, 0x72fdce1628a42dffU, 0xc85c46f7cb6d9f24U,
  0x9ffc4d721066283fU, 0xc9add2f8bfdcea4cU, 0x193e5572dcda346aU, 0xfc77da44581dbb54U,
  0xd3ea14af5b4d5ceeU, 0xa14f1ba8f69bbdeU, 0xae0e0f3b13f35d2aU, 0xd2d3482b376d5e60U,
  0x516e4455720c713dU, 0x6b94646ea8f0a6ddU, 0xb406a74c9632a13bU, 0x39ee29ddd9231626U,
  0xf23332ea0ae307cfU, 0x9c429f9020a0c08U, 0x57e61d2a11e0131eU, 0xd8d0166b97fe1eU,
  0x1b7807100be51c13U, 0x20bf816f12c264eU, 0xf60a26dd2556fbd2U, 0xb3d71edcddda3d7fU,
  0x219eff6ffece7U, 0x2f404e52117fc08U, 0x2eff1fed09b910dbU, 0xcfcfaed7fbbbf12eU,
  0x2108381e13f10bf9U, 0x6e95b184aac5c41U, 0x77423100dfefc603U, 0xf0f436e2ad0e0318U,
  0xe9e40ef7edfb2713U, 0xa7de3707f4edda01U, 0x21bad3d7ff1320ddU, 0xc7d533001fd10e1bU,
  0x350302230a393437U, 0x181ce1cf2afe07ebU, 0x731f41af6170927U, 0x923101283a33f8U,
  0x6c17e8beffdef409U, 0xd7e0e0cab7d61674U, 0xf0dedadef8f0f720U, 0x1d36d60e2200edbcU,
  0xfcf40c25efd8050cU, 0x2ef61ea90802040cU, 0xff1112f8cd2f2821U, 0x1718fa2837e2cb31U,
  0x22cc111906e9d8fdU, 0xfe0515174901e617U, 0x281bf33de1d92a16U, 0xd431dfea37162014U,
  0x12e5f3f52d3a02f3U, 0xfdcf28dd06fd200bU, 0xf5f6d6e9001125fdU, 0xfae3e910000ac705U,
  0xf0f13229df08e8dfU, 0x7160b17ebd51e2cU, 0x10fed2cd0ee308fcU, 0xeef02a12efec291eU,
  0xc9fb22eff625e233U, 0x38ff1f2de50a0812U, 0xbef2ad37032e0a22U, 0xec11dcf41110f720U,
  0x1f05f501ce1d2114U, 0xfa1529d7d300de13U, 0xf4df262bf1fe0217U, 0x91bd1091e082b0dU,
  0x1115e4181802fce6U, 0x2a05e903f11e36efU, 0xf216161c2b352902U, 0x18daf5140f1ce4d6U,
  0xe3fde45f3e031637U, 0xf9170d0d28fa4cf3U, 0x2df1e30e013805e3U, 0x13ce27d642fd0eecU,
  0xcff8f90202d9e5U, 0xf91610dd16d7171cU, 0xacf100d828cd0cfcU, 0xf1cbf1d21405cdc3U,
  0x1ee9f52ef4ee22e0U, 0x33e1d2eeead913d7U, 0xe1dcf127070aff06U, 0xfcff14fa2d3d29f2U,
  0xf424ce0820eef7ebU, 0xe4c3c41a273724dbU, 0xfdcaeacea63b0bf5U, 0x517bada40ad54fdU,
  0xcee321412e292b50U, 0x1bccf44840c95abcU, 0x9af3a841503d254cU, 0xb76231e70f05bb24U,
  0xfb929f032a44512U, 0x2ccff5cde44d2c4cU, 0x319beb9317ccc336U, 0x3ab2e5b678c2471bU,
  0x5bc49977bb2be80cU, 0x6b0cb0e26820faaeU, 0x5851fb606f261f2aU, 0x43a422f2c311e9d5U,
  0xd649d32d3d023c22U, 0xec2debab41de524fU, 0xd6066df70a4217d4U, 0x21b75241c348625bU,
  0xd1b9574ce2563022U, 0x1d9d4265b265d9f6U, 0x3e3166a216495c6cU, 0xa49d12eeda50a465U,
  0xe13d6c485feb12b8U, 0xd5052d49b01e4fefU, 0xdce1b76b23cac8c3U, 0xfac72abe31d8cb55U,
  0xece0f9159a183a6bU, 0xfb49c10d3ca0d4acU, 0xb6a4a501776d1deaU, 0x37380c455e48cd81U,
  0xa350d4391b5efd11U, 0xc11dd40a48396532U, 0x99b7d25553a71536U, 0xa0e8e4566b54c9d7U,
  0x40d94222cb02ebfbU, 0xce3a5b9ddf582f5cU, 0xdbfa0352a5122b0dU, 0xbbaeb8e8e042070dU,
  0x1c6e3c3472502e3U, 0xb0e8da366ebfc01cU, 0x3b90018c1f0ba52U, 0xb530a6f42826fa96U,
  0x5a711c022f290beaU, 0xf266d737553ffb33U, 0x43403820deeea7f6U, 0xce400bb2ddef142dU,
  0x2869611beab5374eU, 0xe3fbb4244f07033bU, 0x5d9b0dab47d9b2edU, 0x2d330aff502bacb1U,
  0xbda56ea0c80f6cc8U, 0xda64abaedfa3f429U, 0xbf02559ac19ef3d7U, 0x6bd554090e35362fU,
  0x3f2ac96035be4049U, 0x514f9000b5bdfa99U, 0x764b43c509702edbU, 0xe1c842aebfc231abU,
  0x6d61e5daf25c602fU, 0xb43f2eae4aeb0fceU, 0x9abb1730473247f8U, 0xd9d1d36309073559U,
  0x5343fe55bd5fae44U, 0xecf6705aa1a8cebbU, 0x41a240d0f25bf4U, 0x35dcca9c4deb480aU,
  0xd229ee52f35462eeU, 0xfdc347f248c04e41U, 0xc10eda902f6baefU, 0xb0a4eac72cbadd45U,
  0xf81815022064ef47U, 0x4fa002116f81aeeU, 0xfeffe9fefafa00U, 0x28eef9f908e10214U,
  0xd4f71912bc15d718U, 0xeff20283d8f20fe4U, 0xf9fe84dcebfefefeU, 0xe8f20321d0dffc81U,
  0x25e70d0316e10807U, 0xaf9f40711eb19ecU, 0xfe16ff0af500e915U, 0xf8fc120d1306fe12U,
  0xf80d090ef2170e09U, 0xeef20723fc0cf0ffU, 0xb2a422925f21423U, 0x12fa2c1624cddad2U,
  0xe9070d0efff10b00U, 0xf3f2f807ecf9f1efU, 0xf7310a98ebfa6100U, 0x16fee91718ebd846U,
  0x1000fa08eff4de01U, 0x90406f115020c08U, 0xf2fbf5f708edfe10U, 0xcb6838dfcee570dU,
  0x3501f3f8421d2e59U, 0xfb1a110bf000dec2U, 0x1fe1303f509fcf6U, 0xfdfb12f7fe02fe05U,
  0xf2ff06f3f8071210U, 0x60a0ef0ebf10ff6U, 0xf2eaf70f0805d5f9U, 0xeb0c000efef605U,
  0x16fb1210ed11fc15U, 0x15fff102d2fdfaf8U, 0xf90a0b0efd14ebf2U, 0xf00004f90b050104U,
  0xe2dde51000090afbU, 0xf3fa280af420ebf9U, 0xf9ecf805ec00f4faU, 0xf5ed05f70f1206ffU,
  0x8fa08eeee12f803U, 0xff1313f007f613faU, 0xfbf0fcf1f31002U, 0x4faf012f601ed00U,
  0xfffcf2f91111fdecU, 0xfe1709f20f08f002U, 0x181b20ebef1afbf5U, 0x705e5ea0bff251eU,
  0xfb0eeeeff212fc01U, 0xb140108f302ffffU, 0xfef2f1030f0504f1U, 0xf6eaecf20ff1f7f4U,
  0xf011ee1101f4ec13U, 0xe91212fff30ef0f0U, 0xe6fd090ef2faf7ffU, 0xfb0b0d0fff0e10e8U,
  0x2991fef8e8e7ee49U, 0xffe4def3e7f127e9U, 0xf0edf00909fa0bfaU, 0x612effefefaf00bU,
  0xf80d0e09f513000dU, 0xea01080ef911e905U, 0xef04fe04eb050dfaU, 0x3ffe80309fa0704U,
  0x140e05ffecfdf803U, 0xeafc030709f31012U, 0xf3050eeb040df401U, 0xddd701e720fa0efeU,
  0xfbebf4f3f2f6150eU, 0x250ce3f5fc141916U, 0xb2316a2c134a1618U, 0x51e9ddd35023f590U,
  0x7c9238dbfa4c5133U, 0x7e1566a0dddcd9bdU, 0xf96d7589c7149bb1U, 0x56cdc0fdf7d595cbU,
  0x2a26a391aacf2636U, 0x1067b02b59b0fac4U, 0xc019dea656bc2af0U, 0x70993aee65f1f715U,
  0xb3cefb192c3f62f6U, 0x606d1ef1a788cb03U, 0xc8e025a2aab55662U, 0x3bc9c0e297ddc6d4U,
  0x1b31ed9bfcd611adU, 0x14c5a841941cce9dU, 0x57d5046221362f25U, 0xc495b27b7053a4afU,
  0xde52f4bf18dad23cU, 0x1a6f593bb1530630U, 0x58fc1e9ed6de61b0U, 0x514b9426589f3802U,
  0xb804da410f95dacdU, 0xa3e3cc11eec7c449U, 0xfcb9b127d6a12be0U, 0x568bd9befdbf3f8bU,
  0x14565407e93ec9a5U, 0xe762e8cfbaf086fcU, 0x829943602cfede1aU, 0x5dfb0769171cdf7U,
  0xc59d51ea5c9938b6U, 0x1883e5f573a919f7U, 0x49551d02dd069cbbU, 0xae4149bae591b63dU,
  0xbd5d0f57cb9dc8c7U, 0xd58526653f3e07daU, 0x94f48424f755f25U, 0xf576e6bd63594d0dU,
  0xe8ac23354a30a722U, 0x4b3d28e2380b720fU, 0xbcd3621192a9282bU, 0x6b1dced91c4e1b63U,
  0x86d7a09fe0702feU, 0x5a186b4fbb369ad7U, 0x683b3b41844bfabeU, 0xaaee5de153a4d433U,
  0x97444bec2e71bbb5U, 0x32d6a12384fdb0bU, 0xa8e75119fcdf9beU, 0x80b4b944bb7b321U,
  0xd33fd15e0206c99fU, 0xb94dd637374c5c55U, 0x607da32bb3b1190bU, 0xa8dcd61e48e2b6d3U,
  0x21341920015a0029U, 0xfe00302140472511U, 0xb05d332ef1e940d0U, 0xb7184976482861e7U,
  0x9565c82bcfd14ddfU, 0xed6e191f3522cb18U, 0x42b2c6c3d3e0e920U, 0x6f3b573014f373efU,
  0x70f499460e7ce7caU, 0xd562488150081bd8U, 0x51d33219282ad412U, 0x6784c905c2679372U,
  0x94d56245116e6a5fU, 0xf9f13ee7fff2717dU, 0xfaf401b00c10bdfdU, 0x41a424588f1af040U,
  0xd3b43f903e5095a3U, 0x35e29222b3ada6c9U, 0x73563bd0581e200dU, 0xf0ab6657ef93be9eU,
  0x57eb3e0d20453b1eU, 0xd227f43f39513444U, 0x6c43ee26fa495a06U, 0x379a9f6f5cfaa15fU,
  0xadf612e39876edbdU, 0x56b327bf925deb13U, 0xfb3de9d7bcf5f366U, 0xd81bd9409fddb3cbU,
  0xc94a1fb7b796a0caU, 0x64eb9e3e011d4c3cU, 0xd01911e9cbf70a33U, 0xd7ac9ccd6f97cf67U,
  0x6f5d43ca48a964e2U, 0x3745307f2f09ab0U, 0xc422b82fed6549U, 0x6532f6ab556e184dU,
  0x4c66f0eee2de667bU, 0xfc1c1c9c15f4a732U, 0x1f7f0925b0541431U, 0x9bf5c3bc752c9f5U,
  0x1419e7a7a9616542U, 0xb0fed1e1c3d43ca3U, 0x8f0861cf6e31a3f5U, 0xb5d958bacd685dceU,
  0xf73c20a5aee2c379U, 0x113d316d68afcae4U, 0xe009cf5f00fad104U, 0x5265ba4251e4fd54U,
  0x5f4c52d345775f47U, 0x5664fd71024fcb6cU, 0xaf79baffda954a16U, 0xefa19e3dc57e6c5eU,
  0xf296e7d9a16c227cU, 0xfaa36a3642b6a3eaU, 0x5ebe5ddf495550bdU, 0xf2e1c8f4abf96f0aU,
  0x7d039a35ae3575e6U, 0x47314868e11bf19fU, 0x534d1411bac8322aU, 0xe4e62107c3f771b7U,
  0xe8e416c36d9a292eU, 0xc1e733095ded6ff1U, 0x1e2ce5b06ba8df9fU, 0x6cc1d869124d08e1U,
  0xd517a0c1acf4e218U, 0xf57423a84c25f12eU, 0xa3c670f89fb55d74U, 0x672058b8d16ae8f5U,
  0xc2f45ad61327f0d0U, 0x366a5eafc7a2cb58U, 0xc3a3661470054024U, 0x1e23765e6b41b5c4U,
  0xce87d5acc034f1bU, 0xb84bfa59a4ce24eeU, 0xd4c2bc166f2e05c3U, 0x2020f4e808a0f863U,
  0xa5a4b4de6f34d62eU, 0x2d065cbd5457c99fU, 0xae7d054c4cfcd424U, 0x1f1ff6b8ab394571U,
  0xf0075f35677fe622U, 0x63675b15f3037609U, 0x1af4cab168bfb6d1U, 0xc15a48bac1bf34f8U,
  0x1909c82facc8d02fU, 0xe378b126c726de0aU, 0xe1e5eeafc53de519U, 0x218f1ac436acf803U,
  0xaaf42088baa4c319U, 0xa4e128c453d56bcU, 0x384f3e7cfe1cd869U, 0xce2d0316b4336d15U,
  0xe2ee9207c0e43b37U, 0x546d9dc67a4c10daU, 0x5b5ca5abf9f53fcaU, 0x67703fabc01b1196U,
  0xe92730fcb0e093b7U, 0xb1d8b0626a9abb6fU, 0x4646d2ebb605fc65U, 0x93a6e386e7a253baU,
  0xc6c663f2498df28fU, 0x57dddabc29b62e9U, 0xf4f060312571121cU, 0xa29d232a0cf8c7f7U,
  0xacbefeeab1927654U, 0x681a70c27d66b9feU, 0x7817073cbfc22799U, 0x95eaca782f423fd7U,
  0x10ea926e0d7d7b5U, 0x30c138c7a75f1a96U, 0x39620becc289701eU, 0xaef8e13a0691eaf2U,
  0x5e5f164d456b0998U, 0x64a7d79a31efddf3U, 0x5c22511b524f8f60U, 0xbaa496d62dabfedbU,
  0xd471fe92ba336507U, 0x96b6d25ca9c64ad5U, 0xc411b1a65767a17cU, 0xc4810b19606147eaU,
  0x8728ae5caa0cfe11U, 0x45d9fcdcc2552774U, 0x84a0cede313c7d6eU, 0xd0674c8cf063e61bU,
  0x4f49f21e57764034U, 0x127715180b97775eU, 0x8e781af5376c027fU, 0x1fc7cfc178fb373eU,
  0x58492cf20ae02fefU, 0x946c570eb2ed5cfdU, 0xc50d0e1ed137303fU, 0xed9c143d77b1a700U,
  0x9be947d9fc6cb569U, 0xf62bdfc022737df8U, 0x9e522147d425fa2dU, 0xb255fb7cdcb99ab1U,
  0x465be87cff229ee6U, 0x362c2fddbc76d43fU, 0x506261a65806ef34U, 0x7e61ab50eecf0f9fU,
  0xf3d509d927f1ce7eU, 0x575979550a91f9fcU, 0xc2f13ea96b6e83ddU, 0xad0b8ee0896b1f12U,
  0xcb4975e7bc640ab9U, 0xc1af6c9afe71f4c7U, 0xe1f94726d7ebe438U, 0x5bd374a0163514adU,
  0xc30d753b4de1a6d4U, 0x5f1d72dd5792f4dcU, 0x23f266fa5e96b8d1U, 0xb13e55b52983cdf3U,
  0x9e8c14851afbe060U, 0x13b0eeeaee096dacU, 0x9b2a62662c37d9b8U, 0x344941aee7726862U,
  0xa1af86c1498d14eaU, 0xe5cfda5fd134d92eU, 0x552623cefb305821U, 0x21ff55bbe4fcca7U,
  0x269903c03576ba4bU, 0x4b343960caabffdcU, 0xacca77eaa2d2ae9aU, 0x196b3610ea94d6d2U,
  0xa1744f51e437446eU, 0x475cb7c019a8c697U, 0x9b08ea5d1341e9c5U, 0x3b0ba615e53f8d69U,
  0x2da2cf3267e29d07U, 0x460cbeeacb1a4162U, 0x570a2748e54edcf5U, 0x1d0fba1e060c8f05U,
  0x700f78f3669d0326U, 0x36c1c35f17c535bcU, 0x15bf2432f1f25913U, 0xadf5007fb0aba660U,
  0xb12e13b736c85018U, 0xf92217eedc43624dU, 0xdcfcb131ccfb7168U, 0x105310abb408626bU,
  0x15c6b43ba22928e7U, 0x4700fc46c957b0a8U, 0x2e71b039f2f63bbU, 0xbb694bf15103cdb5U,
  0xe864e86de34eb529U, 0x5ab35648193ba2adU, 0x4db0bd72df3f15e7U, 0xd793739e4f06b618U,
  0x3f670bba6330d659U, 0x5ef1d34c6f6d32daU, 0xde6076b2eda06b24U, 0x75759ce3de0bdeU,
  0xb24c30ceb5785a6fU, 0xb31b5dd53a3feabaU, 0xf160b2b7b3e9a701U, 0x5761e4727a5ff1acU,
  0x12a062a6b3330dc6U, 0x37c3bc9af6f63eb8U, 0xaa54533646b3c12aU, 0x40d7bccdb5034ae1U,
  0xd7aca9a5b94fd837U, 0xd3c6032c369da106U, 0x3ddb9cf0e657de99U, 0x6c04471f52f07705U,
  0xcfd8e7eb55f4ef4cU, 0xb2beab56de60085cU, 0x2120af501cbe75bU, 0x4445f00ea2e6c443U,
  0xaf50f5ee23ccef99U, 0x187271673cfacc6fU, 0xae16c2b95798022dU, 0xc55a4b40005b7672U,
  0xf317d76375c5e0d8U, 0x740033685276e04eU, 0xcc2313c220e4c3b0U, 0x11db02bff89a74a1U,
  0xf474cd62b3079bc5U, 0x2fc1d0e2b79e42e0U, 0xe44b2eff20649dadU, 0x3f4e283df566c537U,
  0xbea24920bb4ad806U, 0x147bcf350697be2cU, 0x2f77b606129d743bU, 0x9f090bd7302eb4f8U,
  0xb8f2435a15cbf2e6U, 0xd45cecd675d83d42U, 0x37f13bc1a1a645eeU, 0xf9f1021306f6e104U,
  0x70a01f6ec08fd0aU, 0xed00050efefa0af1U, 0x30617f4f3fe0ce9U, 0x3118fbd1e70f20d5U,
  0xf208090d03fb8132U, 0xaf5962e06962b07U, 0xd6e0fa06e8f4e725U, 0x20202fff7fd0e14U,
  0x10fdfefa09fc19f5U, 0x1101f2faf10ee312U, 0x110df1fe09080bf3U, 0x1205f307edfbf810U,
  0xe02104000901ff06U, 0x50d1b0b1f391718U, 0xfe10eefefffe0b0fU, 0xbf41011fcf20df9U,
  0xf132eaf4f708f50cU, 0x7f230043c0ccbf7U, 0xf1f9032b1cea081dU, 0x1300f5ed08fd01f5U,
  0x71004f214080cffU, 0xfe40070a1505fcffU, 0x4ea1914cb82aaf7U, 0x102be41bf2d8dc38U,
  0xf3ebf00e04fde5fdU, 0xe80bf4e2fe0cfcf2U, 0xeb15f4ebfe0e01fbU, 0x9050d05ff0cfd11U,
  0xfced09f90f16fffcU, 0x5030411e8eef602U, 0xf8eef5fc14f90703U, 0xcfcff00eeec0ef2U,
  0x3ef0c03effbfaeaU, 0xf9fcec06faf0f4f9U, 0x100b02fbf302e802U, 0x2f10ef0301010e11U,
  0x110b11110001eae4U, 0xeffeeff207eeed04U, 0xef400eef4f00b00U, 0x304f2fbf3fdedf7U,
  0xef12020ef90bf5fbU, 0xfa00eaf20bf4ff0dU, 0xfbf31218f11103f7U, 0x9030f130d0d020eU,
  0x171bf9fdf9effdf3U, 0x53413111e1a2517U, 0xfdfcf004fe0b0ffdU, 0xf401ee050a06f0f1U,
  0xfded07f90cf8feffU, 0xf90b02010807f506U, 0xfc00f20c030bf1f3U, 0x40508fdecfa0605U,
  0x14f315f8f402fb11U, 0xed0fec02ef0100f6U, 0xf802270fee0502f5U, 0xfbf8e3f6c913190cU,
  0xf005f2eef6f2ef08U, 0xeef0f0b06fb01f1U, 0xf4ed0803ecf20403U, 0xf9120deceb0d0e02U,
  0xff0ff5faebf9ee02U, 0xf20efaf5000df2f1U, 0xfaf1f40b0e00f609U, 0xeb0501f905e1f307U,
  0x1a00110a0d12ec04U, 0xf701f1f0ec05f302U, 0xc080cfcfdfb11ffU, 0x80a1ef90a130911U,
  0x62e1f61101f9100cU, 0x8f5efa29e11a703U, 0xfe6916ffd5e2bb08U, 0x5a6f2d53d3684123U,
  0x6852b93abd73e7a3U, 0xbdab16dbbd17d6e7U, 0xeb60e8334856ba62U, 0x2b14f62636aab410U,
  0x6c29dcbe647f48adU, 0x3c4ceb1d8efaff67U, 0x564809dbe2148ec4U, 0x5118f5610d363aaaU,
  0xaa4bbeef1f31c7b6U, 0x305aba33284152eaU, 0x53c2a2e344320f67U, 0x6a6cb1adb1a6a71bU,
  0xa3b7b23d16ce1bd5U, 0x3df556295c14f6c0U, 0xf96101480117a504U, 0x89f2122ba044331bU,
  0x544ebde3589a3cbaU, 0x5eaa9b5fd813e7bcU, 0x9d62236e11a0fd11U, 0xcd5bf5e133d7e5bdU,
  0x2a950c5553c1da01U, 0xc1f7f05c14f0dc3eU, 0x5dabc6ac303e53acU, 0x3febf3bbef49cf52U,
  0xbaf70056d1f141f0U, 0x186cd9d45cbdd9bbU, 0x581d1be29d6b70baU, 0xf1fcde17334e9b03U,
  0xff36e976e971b1b7U, 0x7ade01c2976fb5afU, 0xb0e5c331b25e49f1U, 0x7eaf3d64b39f8f4U,
  0xd45427c86602b418U, 0x643fc22142ab4d6cU, 0xf4d5331c05e2c695U, 0xb208eebe48c54210U,
  0x549917519b5318a0U, 0x3963aeb6c1efc4b5U, 0x32d9a2baa82a1654U, 0x4c29a940bd4db027U,
  0xa0a0b852e405c46fU, 0xe6e3393e032b17b3U, 0xf1d8b6ba2ba5a019U, 0x576ac1dfc2d9371dU,
  0x6c6013e6059b18f5U, 0xb5333fafa0d7e1a8U, 0xd7e2403b46cbbc3cU, 0xfd565d5202d7220eU,
  0x7044464df9e85bd2U, 0x9a1b0c1dd5f3ec52U, 0xa859fe23a8645b6dU, 0x263b758064fe247U,
  0x5c449b324b1bef67U, 0xb5facff16dadb323U, 0x14d79d234f201e6bU, 0xdded5a030303d434U,
  0xd1cb9e0d4cee5952U, 0xb6ca4d37271eeU, 0xb43d04b9c7f2cda8U, 0x2ada5e164445abf6U,
  0xf4a59b07f10d64beU, 0x5ab67514c57dbd3U, 0x24b3224feb296e46U, 0xe30a13f20cba3549U,
  0x36b32314694fecb2U, 0x692e2a623a9a652aU, 0xf94867035a4d210dU, 0xe0fdff0b23eaa748U,
  0x131b08e1e1fffbf9U, 0xf7d8edf1de03e115U, 0xe546f3d91c29e841U, 0xeee0be52f8a1f001U,
  0x281300d1d3adc117U, 0xc281c3e88f021d0bU, 0x22ed2213509699d7U, 0x811e71dd7ddf03aU,
  0xf31516f913fafc12U, 0xd9ebeaf82200db47U, 0x15061deef10711ecU, 0x1913ff0de6e40220U,
  0x36b210ed1a01d8eeU, 0xedd092ff7fcef01U, 0x15dff3351021fdbaU, 0xfdff1e2f2d6fdf4U,
  0x1b07ee01030d0916U, 0x383021438ddfff67U, 0xdb4014db241ff103U, 0xdea051419e77ad7U,
  0x5f5011c12e4ebf2U, 0x130cf01d0f11f0e0U, 0x34f3c48a95d5c82fU, 0xe2d7f0d2035e1845U,
  0xd03110b19f519d2U, 0xfa03d610fe1912e9U, 0xdfe3091105ee0817U, 0xf04f1102f093ac2U,
  0xdb101b07e802e6f0U, 0xe9e2dd04d80c08daU, 0xfa18e6da0cf5ebd9U, 0xfd1506fc17dc02e0U,
  0xe22018f7e7dd28fdU, 0xe12501fef900e50aU, 0xdae1e2f307eff011U, 0xf71c0ff1f3f1e3f9U,
  0x3134181e13f90feaU, 0x22141df8fc140b1fU, 0x130efa16fc17f124U, 0xafcdc0612dc03feU,
  0x8f6dcecec151106U, 0x1f05fff3e51c081cU, 0xfcd60dfe050ffe18U, 0x18e1f50d1902ffd8U,
  0xecf9f000dae3eaeaU, 0x1021c82e0be505fdU, 0xc12edf8e0fb11eeU, 0xfb11ec11f7030915U,
  0xee5f01b1c12edeeU, 0xf4090b00faf50ae3U, 0xe7e21bdc13dfee1fU, 0x1017eb0f08211312U,
  0xb00071aef0c1b0aU, 0x60d141704f018e7U, 0x20f9e7ebe8060ae6U, 0x1342a0f707f7ced0U,
  0x9e7decbfdddfd3bU, 0xe60cf8110022df11U, 0x1612fbfce1e2f413U, 0xe80a0ef80c010ffcU,
  0x8150907f00101e0U, 0x21e5f8fe04130bf4U, 0xe6f8e2ed21f32210U, 0xe3daedfe0a00000eU,
  0x180c0ffdeefb14fbU, 0xe0e1ebddee03fcf6U, 0xbd4f812eff612deU, 0x5ea091e0fe0e8f8U,
  0x7e41af1feecdbe8U, 0xfd09fad4ebfbfe59U, 0xfa11f41211071c1bU, 0x1d0ce5eeeafb10fcU,
  0xfe150bf7e5140501U, 0x440dd5d633e404f2U, 0x8e8215a0ce2dd0dU, 0xe10a78e4eefa0c02U,
  0xf0fa0221e334fb78U, 0xfefe1c09e80d22ebU, 0xfe0b0a011dce14ddU, 0xdbfafafde2160525U,
  0xeb040f07e903f20bU, 0xf011f70604f00218U, 0xe90bdae921e606ebU, 0xf5c2bec5c323ebf7U,
  0xf41405e8ff1714c5U, 0x1702fe020b0efe10U, 0xfdec0e19eaf62110U, 0xe4a70b452c1eab29U,
  0xbd0528f8b91117dbU, 0xe9f9e8d2fafc0df2U, 0x2ecfdf4f5ee0fedU, 0xedff030b08e711fbU,
  0xef317a7f191f8ee3U, 0xc50a3a1ee70815ccU, 0xe80f0b1e1cceb70fU, 0xcf505f71afbea1cU,
  0xf416ed02040c0714U, 0xfde9f40df10d0213U, 0x21ff09f0ee0bed08U, 0xf316f902f70f2fdbU,
  0xe3f5ed22d50ef3f8U, 0xf9f5e7fef3ef06fbU, 0xe12e713fadfe200U, 0xec02fff818f9f520U,
  0xe9f007100015f410U, 0x11fe8090bdee1U, 0x17fa010c35c0c401U, 0xf50ae70a101513f0U,
  0x5f5fa0efb0f0f13U, 0xfae9151306e90500U, 0xebe3fae309f4f1ffU, 0x1ef01ef08ebf418U,
  0xf916e5e9ee0ce917U, 0xe10eaf9ea05e7e6U, 0xbe7eb0de60ceaf8U, 0xe2e1fae7ec030dfbU,
  0x11f90701f214d3dfU, 0x8ebf80406ebe908U, 0xf3fd08ed0ded0d01U, 0xf1f0051717fef002U,
  0xcf20f031001060fU, 0xf8000306ed0fed0dU, 0xf9fbfefaf10510e2U, 0xf5e80701faedf410U,
  0xeae1fe180c13fd20U, 0xda54ece105ff1bc5U, 0x51b0fff0df7e912U, 0x5effcf403f70204U,
  0xf010f410ef0d1afeU, 0xfde90bec19f605f6U, 0x91501fa0a17fc11U, 0x4fc191b19eff508U,
  0x91315150f02f3fcU, 0xfffb1317e3eb160fU, 0xf9f903f21008050aU, 0xf010170214e4ec0aU,
  0x15fadf0fef101aeeU, 0xfeedfe04f3eafcfeU, 0xc5fe0ff7efe112ebU, 0xde153de8f2c3fbf3U,
  0xfcf92961e63a63e4U, 0x9ca43113c52a7cc3U, 0xcff54a12b6eb9f14U, 0xccd80e1a0b778c59U,
  0xcb1a67c2c06d5c21U, 0x5bd2a4c73feaec3fU, 0x97e1bc3e4da0f3eU, 0x46194f13451203f1U,
  0x5e6cd224e00b2b20U, 0x225f67ce65295fdbU, 0x583fea2cb7149c0aU, 0x9699c95099d83938U,
  0x1058fbc7fc560ccbU, 0x3015fce5335ce6c8U, 0x533115af072300e3U, 0x36f1099373ccf5cfU,
  0xcc677840739cb0f3U, 0x46244e995e4ed8f9U, 0xb0d54e2383c95c3U, 0xbc1a3fdd5de6b588U,
  0x50b49af1cb9d61a1U, 0x61dfdfb0fda80d47U, 0xb332d31d153ff0f2U, 0x23ddb310ff5f8daU,
  0x41bf0cbabf6c3ce0U, 0x4d2fc358ebc8c59aU, 0xeb189f4c53dbe166U, 0x6744e2eed7161452U,
  0x2f1894de6d14af4aU, 0x663d82b9a062d1aaU, 0xa51b5a4dc92b2535U, 0xf23e4be3a5654655U,
  0xce84d908992a1013U, 0x3d146cb0c5dea112U, 0x9727db3d6a9acf56U, 0x13d8b0d0dcd9c9e2U,
  0xe950e68f4b11efcdU, 0x505fe00af1e74d44U, 0x6741659766d83c0fU, 0xe17f266c97205d15U,
  0x9d045aa6fe0778beU, 0xd9702f19ddfd0536U, 0xa0cc5f444d475de5U, 0x611e5cd2d0ac17e0U,
  0xc1a8d56326efba64U, 0x51a064dd1926f7ddU, 0xea086501be1de0aeU, 0xfa62230c9a263827U,
  0x1f323a70dfc8e902U, 0x5eed65230e61f706U, 0x2a27ece9a73b57ebU, 0xc7fc35a9436c3526U,
  0xe1685525931e964aU, 0xcff5bce9f9acaeeeU, 0x9aa54c57b61c3dbfU, 0x274d642da8558fd3U,
  0x26b5abcb9c551b3dU, 0x3fe027106937ab7aU, 0x522d644ac8b9ed6fU, 0x4731059fd69c1d25U,
  0xfa2fd02a3e232107U, 0x6dabece024c6c73U, 0xdc61de044d5cd3d5U, 0x41c81bd1ccfc0d98U,
  0x4ada5c3f730cc82aU, 0x5e4ef20d0ea7e4c6U, 0xd196cb9cf15c16e7U, 0xfefa9de65c569349U,
  0x846bb2be846ccb7U, 0xccef06a6fe62725dU, 0x43800f223fcda44U, 0xf0f50330f7e1ee07U,
  0xf5efff210729ee0fU, 0xe90ff30dfef21306U, 0xe2eb01c701b82507U, 0xd10c0313efffeeeeU,
  0xf8f6da3300cfeb09U, 0x1bfbe8e954fc0dedU, 0xbea28c931df14eeU, 0x30f00171315f40cU,
  0xe30edffc25f0f107U, 0xc04f0ea29e9df07U, 0xcffb0308f6e9e504U, 0xea070dfc0bfbdee9U,
  0x20e70de8b59f09faU, 0xce1832fae709ede0U, 0x102181319ead907U, 0x20ecec600a21f1ffU,
  0x20f06ce0cffe112U, 0x6f60fd4ed0daee7U, 0x90ef100fc16f7feU, 0xf20f0c17f5fafef1U,
  0x5008fb0c07e4efeeU, 0x413029f2332b0027U, 0x191f14a381c90221U, 0xebcd130c0824e718U,
  0x2711382031f81c07U, 0x32205f4ea0c0f12U, 0xedfde5f1f51715f3U, 0x1afcfaeef3c33602U,
  0xf4f91b29daedfe28U, 0xa1516f5151513c8U, 0x1035dfe3021f11e4U, 0x4205092ef2f734fdU,
  0xfa270412f9e0f913U, 0x413fc1d041527f4U, 0xd2265d3d5e105dfU, 0x150a1c090f0a08f8U,
  0xfef90c0a030b0e22U, 0x3e8e5fd0eecf615U, 0xf7dee4fd0ffdf4e2U, 0x11fbe8fddee70619U,
  0xdde20f3e105f1e7U, 0x1f8ff00ebe2fd0cU, 0xf0f0816150a09e1U, 0xe1ec0609070f1022U,
  0xf2df19f1c3f8f7ecU, 0xf6f7ebeefeff06fdU, 0xe0ffc17f402f2e6U, 0x8dff7fbdb15eb18U,
  0x19e402170c17ffe3U, 0xaf009e2f2fdf1ebU, 0xb0ee90a0c0af8edU, 0xebdae51a00011adaU,
  0x3b12eb0dfcf3f606U, 0xe7e3000814062716U, 0x115fc26281002f9U, 0xe5e31003fe06e51fU,
  0xf7e001e1fefb09e8U, 0xe1e8f10f09e9e306U, 0xf6f6090d000315f8U, 0x121f101b11e3ed06U,
  0x151d252928e6f31aU, 0x1a281017232efb28U, 0x2506f92f0701d725U, 0x3fa1ff2ad3e171aU,
  0xdcf1e90ee2efef03U, 0x11140af2e21e09ddU, 0x19edfa080c0814e7U, 0x25ff1e1c1d0dfd06U,
  0xe715f5e5280d051bU, 0x180fe8e0eff125f7U, 0xf7fc071af308e611U, 0xf03eff2afa002914U,
  0x67da08067ddb2614U, 0xaee31f13eafb021eU, 0x3c2bd1a6ec8fe67U, 0x12ee28d5e7f2eb1eU,
  0xdd22afc0bfc1cefU, 0xfd1738fd1e0708ccU, 0x1109f0eb2318e607U, 0x1ddceede09fa0721U,
  0xc34ef30beb1303eaU, 0x4091604de1e15f0U, 0xfbd1447f4c0c0819U, 0xe61b281d110504c6U,
  0xf0fef1128fc0f19U, 0x5d16e2cded2e0710U, 0x2dd431bda1bdfe9U, 0x14da2130e434e122U,
  0xef11e42902030d26U, 0xfbe2fe1212091d12U, 0x621441e6ed060e09U, 0xc4d727deacf22346U,
  0xc1532765eedffe6U, 0x461e00f6f11de014U, 0x13ebe1dc000feed5U, 0x16f9fb3b30e8f8e3U,
  0xaddef21ebfd15ebU, 0xde126223fe90c36U, 0xe2e826f2f8ed02e1U, 0x221f00f109f5170dU,
  0xb153de1e91cee17U, 0x61bfe182fe802f9U, 0xe1e9e5efe2eceedaU, 0x1100ef07f60adf21U,
  0xdf082f281b110f14U, 0x1211dceaecedfcf3U, 0xefebf3e7eed708eaU, 0xeffb08fcf2e713ebU,
  0x14fc16e9ed04ecf6U, 0x2d9f91cdbea0ae8U, 0xfbe3ebe1f1e811f5U, 0xcea0b0b242f08e6U,
  0xe10b26ea05f3fd03U, 0x121f227fb1ddbf1U, 0x330b2bd5cfb3fce6U, 0xeae5e204dadb0b1fU,
  0xfd1ae60dff08d90dU, 0xe51304ed1cff1504U, 0x4e5e3dfe0f703e9U, 0x706ea1ee7fdf6f0U,
  0xe6ee0e1b05f009deU, 0x18eefa05fa20fb1aU, 0xf813e302ee1a0ff3U, 0xe6f1381703fc2211U,
  0x5002f0520f0540aU, 0x1a220f15e6e9e5f8U, 0xf8fbea1a100ce0dfU, 0xeb0afaef01dbfdebU,
  0xd110001ad8dada26U, 0xf1dfe0ebf3041202U, 0x1fae401e50afee4U, 0xfa45f903e8d8f1faU,
  0xf09f11dfa281c11U, 0xe6fa063629e918dbU, 0x2c22e1f00ffd0c1cU, 0xe30ff025e0f9030dU,
  0x15fded0fe708fcfcU, 0xf3bead3113d7e32fU, 0x4e4d1a450470a8d3U, 0xd2b4e026f2ac15d4U,
  0x345ec6ee68b805ffU, 0x42e6ebc4f9eaac59U, 0x28c59f1722a79073U, 0xaf71c727370e471fU,
  0x166c55e6c8f0a2abU, 0xeadcdbea1522ae5U, 0xa12716d71a6359cdU, 0xe0c712adb0370244U,
  0xe70a5a7566152103U, 0x4a559bbf2343a15dU, 0xb5ab9dab11a5139dU, 0x6805fec12f080a6eU,
  0x65d7aaba5031c2ddU, 0x1d445914bf08a609U, 0x3c333af29eab4e39U, 0x5e50a138ee4fe9b5U,
  0xe74e3161343ad639U, 0xd2589d39d3243e32U, 0x69f10b25194eef65U, 0x2353d6381ecf34e4U,
  0xc925131d7cb3e2e4U, 0x99425db928a5e038U, 0xc61ca9e03ea39839U, 0x3cb90635fadbdf0cU,
  0x524baf30cd0ddaacU, 0x9fde30f9d601b2aeU, 0x60483b58e5e61430U, 0xba28a27c1a3cef7fU,
  0x562bf0d70af18e6U, 0xf377b7dfb72558a8U, 0x59d41f63adad3963U, 0xe6ad0a09313e68feU,
  0xd5680c12e06c66bbU, 0x455bb66ede4527e0U, 0x2200c19da99faa90U, 0xa00e650bdd233e74U,
  0xb538d05841dfcbdcU, 0x53d10e2af2473ef7U, 0x5b675f466e09f912U, 0xa3124bc2f4c55a0aU,
  0xc1ca4c224ffbd0a8U, 0x303e0e5cf627df6aU, 0x5512ff52657854f8U, 0xcb549cbd60ec5a14U,
  0x2431eafdbcd7ed61U, 0x6db5ce5751a1b59aU, 0x20a76ddff6f0d735U, 0x536ed7e7135c9f5eU,
  0x5908f3ddde3e9898U, 0xe3b3a64f2ca9d2a8U, 0x6edc10c025741d5bU, 0x4b0902e73e216e98U,
  0x2d2369ab409aa918U, 0x3339f3944c65450U, 0xef06d6f2385e5c43U, 0xa1a72fb72d6d5aefU,
  0x82117ea2a6776f2U, 0x63be4c1ad0fc964aU, 0xaed15a66b80c4da6U, 0xeade9efca8ea31b1U,
  0x60301f2107bf7368U, 0xdb3a59135ea62eb5U, 0xcf32df01626f2b0eU, 0x76e12d27e18ee439U,
  0x9dc4cefe4705e3faU, 0x73e2e752fcda6908U, 0xa6b400b1e6b64f2U, 0xa2f20a15c46036bbU,
  0xfc15f3f3f4000defU, 0x1217f404f6fef8eaU, 0x1208f3f302e50f09U, 0x31904011c03fb12U,
  0xeffe3c24160e0841U, 0x7eee20df80563faU, 0xfa1677cc067fe9e6U, 0x15f60ee60d301af5U,
  0x28ff06010b0e11e9U, 0xf10dfe08ffeffa00U, 0x18f0ff1017f1f420U, 0x80ff90607f3f903U,
  0x1c1d05f212e3f3e5U, 0x1cce01f2f3fad130U, 0x1b433319f00be9eaU, 0xf7080710e9fdf9eaU,
  0xeef5f821fb0e04e9U, 0xebc1e709f90f0fe2U, 0x1a1fd5fecee94a21U, 0x1529e219f11deb02U,
  0x120005ff071122eaU, 0x90d0efe06f60d02U, 0x18bcebe6f90aececU, 0x1feec3fe1d624915U,
  0x16444fdee1e9f3d3U, 0x3030500e6eadff4U, 0xf2e2f3e6eef30c24U, 0x92510f001f00010U,
  0x1cee0efffe00e702U, 0x83302fee40e1704U, 0x2113f0f014fe1a19U, 0xee0b1411f4121103U,
  0x1902fe17f00a11efU, 0x8ec15f1080d0e0cU, 0xfbeb0c1617eb0912U, 0xf6f3fcf7fd15edf7U,
  0x111f021302161212U, 0x1301f7d7e1dd0720U, 0xebf10de4f1f0ff10U, 0xfe819fd0de9e6f4U,
  0xe516f4f7eff8e6f8U, 0x907f1f1eafaef11U, 0xedecedff08f5f2f6U, 0xf2f1f117f912030cU,
  0x12ecef00f5081519U, 0x1ef501f0f5060bfcU, 0xae0f0eaefdf0207U, 0x3f30c0009f9fefeU,
  0xec03fbf70fe008f7U, 0xcea11efecf4efedU, 0xfdff09f0fbef0cffU, 0xf60afa0cfd0c0f02U,
  0xeb0af1f0e6feefeeU, 0x14f6ef101cf6ff01U, 0xf5f511110cf6f1f6U, 0xfd12e4fcea0bf9f4U,
  0x17ef38ff3412f509U, 0xe80008fef2110419U, 0xece6ed11eb0f02fdU, 0xe6f30a0bfef915e9U,
  0x810f605fc06f1e1U, 0xf30ffee403e3040dU, 0xf4f3e2f8f30aebfdU, 0x110bf7f811fddd00U,
  0xec1603fc12fae101U, 0xe8fc15f6ffe8fbfaU, 0xfef309ea000f0ee8U, 0xf0e8f8f421f21b1aU,
  0xf70d13ea0becfc00U, 0x9513e3e0130b1517U, 0xb4e86b0faa7f14ddU, 0xc54da14d443760e6U,
  0x31d24cfb33e8600dU, 0x393f6910e40c9852U, 0xc469b5bd4031d0dU, 0xf10ba638caae3a20U,
  0x1c3c903e81020e0U, 0xe1157509a3b0d1a9U, 0xea2aac9dcd75b26dU, 0x6e27f9d2cf6257ebU,
  0x181ccaad30dfa956U, 0xc0cb340a6b1e1616U, 0xb40a424fc53a1d2eU, 0x5b549ae4b8cf96e1U,
  0x2aaaaaf1d7aa65a4U, 0x9d38d5c447038e11U, 0x6aa73b3aace0b7dfU, 0x8a2bffb551b10835U,
  0xb817621398134a96U, 0xb5a23d4cbfc91d85U, 0xf4cf9e1ac7a7ddedU, 0x931832b0e155f703U,
  0xef0917cc58f61e66U, 0xd399589aa5245837U, 0xd98a2fbb8d4c5518U, 0x34e35f96b9c6efecU,
  0x48e7721df0c4f1ebU, 0xa36ccc45946cab3dU, 0x114d28ea502995eaU, 0x5ab1b6b93b5e4b71U,
  0x5addf4430ee9cc6U, 0xc86c886c296020e4U, 0xc7364064b7d41df4U, 0xd7f0693f623fcdf6U,
  0x415e039be8279cb8U, 0xf8912466918fe378U, 0x214091a999c746a8U, 0x1e66f2ee279461cU,
  0xe7080764400ffc6cU, 0x65e5aa161905acc3U, 0x5ff1cc4cb0b869d1U, 0x6bb14205f671a795U,
  0x492bd566eb75e6b0U, 0x8f5863625547221U, 0x1901c02ac4a7e663U, 0x605df4e0158ff46U,
  0x98ab4fd03e6e2099U, 0x5e53ecc2b930ab9fU, 0xb758d594a0cfcb0fU, 0xf9d8d3410c117044U,
  0xbdec7962e2434694U, 0xbc6a42ca2650a9b3U, 0x12faa81fb79ac175U, 0x46edff17e62c53e8U,
  0x934e3661e305309aU, 0x174124cab3203fdbU, 0x6e3e6b68d11f118fU, 0xd8e59d774b9ecddbU,
  0x7926725ebc6a1e4bU, 0xcc13648daae043b6U, 0xb73812589f0ad4f4U, 0xde5637aa33d53c6dU,
  0xefe64895236b03acU, 0xde990b08695e3330U, 0x44a50bc417afde69U, 0x7416391bb011a2abU,
  0xe7e9f61c9512ca6dU, 0x3701c7b16aee32d9U, 0x610167beff103459U, 0x1552baddf49e0770U,
  0x4803c21a34f81c3dU, 0x8d4706607d91902U, 0x4368600f207f1993U, 0x4ebbcdbb535ea7c0U,
  0xdd37f7ce00d0d50aU, 0xa0bba4a0fc26c9b0U, 0xb40b22320fc1e35eU, 0xfeedde66a73efbf9U,
  0x67c9e637fdeac0a2U, 0xd2d2a0a8c6e03b33U, 0xb3fdb0586cd5cdU, 0x1bbb32b557b0ca3aU,
  0x52a319f24f0f23bU, 0xb5edc19f202f9d95U, 0xf0e0c6b0f846cc17U, 0x6529d440bcd7cd3fU,
  0x3d1f1b0ea52f7ffU, 0xd422dff0684ec01cU, 0x5b144907230fe4f6U, 0xc5fb63308f52522U,
  0x12e9edad6af7ae49U, 0x82b470c16f0e3b6U, 0x45051d3d32e7de37U, 0xdeb1284a3aa60859U,
  0x150cf1383fa3f5a8U, 0xddd6fec3d5e09e54U, 0x1aa718b3fbddceccU, 0x2ee7a85cfb1018U,
  0x6d78ec5db946baefU, 0xa24f27cf0a5311f9U, 0xe764d0b9a7e9f9d0U, 0xdcc8cbbc2cf753d8U,
  0xbb056835fe0dd262U, 0xf3ec5747b1ed3bdaU, 0x5d37f2ea6e3d3be5U, 0x10d5665b61be0aaU,
  0x4016f1f6a6a410f3U, 0xb5c256e4b23dd19eU, 0x4e0d674e0e6f6a20U, 0x6c29a737c2f0e2d3U,
  0x5d08a9e625c166c1U, 0x1725f1d8ab654ec8U, 0xb50dd0844c2a7bbU, 0xc9f65a47240753cfU,
  0xa21241b763bcccb3U, 0x2167071731fa3858U, 0xe6a8e637393b3a5cU, 0x613f32c567a33da7U,
  0x64a55e6c5f43c568U, 0xacdb16fe38e9c267U, 0x40baa76b1d5ca826U, 0x2d6011106947cc5aU,
  0xef5460aea04e2349U, 0x20282f2615474561U, 0xbebf1dffd2d10e65U, 0x20a7d5f9b4456d12U,
  0x4facb003f5cd2e21U, 0x24412d14fbc21acbU, 0xc765d2e362e72be6U, 0xa04aac4dde625cd5U,
  0x6e3a2fa60d4df5ccU, 0x12e3ecc717a551f7U, 0x3c34f55df42ed38U, 0xd754e5e3223e21f0U,
  0x1617d84bdfaed8a1U, 0xf244fdcc6f094ce3U, 0x2fc6e4c1ffcb035bU, 0x6aedfec40b35aec4U,
  0xdb011912b6cf38f3U, 0xc85ff1e9fc0b12a8U, 0x8f2ff03f651d80cU, 0xf3f30cfcfb040307U,
  0xef0ef3f6fc07fe0fU, 0xf3f80b17fbe2f8fdU, 0xe30a1208ddfdef0aU, 0xf004f98101081cfcU,
  0xe8ed8bff0e0d0df8U, 0xf8f5f911ece7ee8fU, 0x9f20e0e02ddff01U, 0xec080900020cfd01U,
  0xfcfbfbf6fd0301fdU, 0xfafd0d0ef509f9f0U, 0xeff40e0503f50b13U, 0xf1001814dcf4eafdU,
  0xfc1d30221def1a18U, 0xfcfafc1c2bece6feU, 0xf0f50c02fb080aefU, 0x4f9000500fbf5f7U,
  0xb2008c9dcf835feU, 0x1b20e81814f4f239U, 0x8f5fb02feffe304U, 0x1fa05f907fff70dU,
  0xf600f00b0b0c0005U, 0xfcce8da704e04805U, 0x1af2d1fc25fefd30U, 0x8fb0df2f7ff0ddcU,
  0xf7ea11fde909fafcU, 0xf3efff0ef5fd0ef5U, 0xdfffef3f7f100U, 0x702f1f20004f3fdU,
  0xedf1f4faf30ce60dU, 0x10fe03feecfefafeU, 0xaf4fcf10403fbf8U, 0xecf1fcf0ec070eedU,
  0xef0ecf8ebf6000aU, 0xf3fcf7f9ee0d0e07U, 0xfc0205f209ff0702U, 0x1d112509ee1ff90aU,
  0x80bf1f603effa07U, 0x4fb0b050cffef00U, 0xeff8070dfa10fef9U, 0xf9fe05f3f40e0202U,
  0xcf2f507f3f60108U, 0xfef80803edf8f403U, 0xef0b00000bf6f8fdU, 0xfeeefb0bef0cf8feU,
  0xe17fc1609f70a0dU, 0xeef0f7f9fcee1c03U, 0xd0e02f8000b0bf9U, 0x7f407f70503ff06U,
  0xf9fa0ff0fcf10108U, 0x510f4fa0ff5f3f9U, 0xf20a02f2f80c03f6U, 0xfe00fb010af90e0aU,
  0xee1003fd03f3f103U, 0xf2f5f9fd0ffe0208U, 0xcb20e10faeaed24U, 0xfef7f7f5f30309faU,
  0x2ff08f2f8f40cf9U, 0xf0f9fdf702070803U, 0xf5060ffaf8fd0ff8U, 0x8f706f103fbf4ffU,
  0x5f10d0e01080c06U, 0xfa0bfdf1f30008fcU, 0x30a03fdfcfcf802U, 0x7f2f40b0afc08f2U,
  0x5f4f00df11714f6U, 0x4fdf901fb0c0f0cU, 0xfffcf50107060c0bU, 0x13f403f8060f10faU,
  0x24382635164f1712U, 0xf8e136fed8ecebeaU, 0xf913dff012e508e3U, 0xd8fb36592a02e814U,
  0xda1c1feb14db0b53U, 0xfc739c6c134a0f3U, 0xed17ab1bee142004U, 0xf3272bc8a8ef2cccU,
  0xec2f02edf0140afcU, 0x6e91bdde8ebe104U, 0xeae409f0060ff001U, 0xfe2514f2db0701f4U,
  0xdb14f00c1a1b360cU, 0xefe303fddfdfeeefU, 0x183b1d0d02f23381U, 0xe22be70bd22500d7U,
  0xcd6fd00eedff3d9U, 0x1fe9fcf024ddf9ddU, 0x721c7d6323bf1e1U, 0xe2e2090ce70c00d4U,
  0xe70b13ec2b0beb2aU, 0xf5e30700e9e020f8U, 0x8ee14ece7fc01f2U, 0xe703c4e7fb29ef1eU,
  0x161707ebfc0338e0U, 0x1130200524d01200U, 0xc21ef07fb07e1f8U, 0x27f8ff1718190f30U,
  0xf3fa3ff82cd80ce1U, 0x1c05140de803f315U, 0x211ee81110e4ef10U, 0xdef0211bf9ea101fU,
  0xe71c1606f2101e03U, 0x18f412f4f2f8f222U, 0xe50323101beff12cU, 0x14ea1702e0ded7ebU,
  0xf2f5f013e40bf41bU, 0xdaef132eeb1105e3U, 0xf521e524e423000fU, 0xea262203141e12e6U,
  0xecff01dc00dde709U, 0xfbe80dd90ef51ff9U, 0xf601ed16f6de01ecU, 0xd61613faf9e3eefcU,
  0x9e0170000e2e20dU, 0x20e21907eafafeeeU, 0xde07f92ad9d924e2U, 0xfd1b07fa1ff10208U,
  0xf20f71cf9df0ef7U, 0x15211be200f402e7U, 0xe509fee30cdfddd9U, 0xe921f9e0fcfeea0bU,
  0xe0f81d13e9e4e2f0U, 0xd5050de10af1ef00U, 0x19e3d60b0bf824f4U, 0xeceef9ea1de10c12U,
  0xaafff903eb142b28U, 0xc7b408d62c413802U, 0xe3f6dfd5d5001206U, 0xf104f7f518e3f0f2U,
  0xdf50105ebe01511U, 0xefa0de2f6e2dff4U, 0xe2f212f019130216U, 0x3e0020f2c030ef8U,
  0x1f40e08ffedf90aU, 0xfe1112f7001dfc23U, 0xe2f0fe1ff215d519U, 0xd7f8f8ebff0a25fcU,
  0xe6ef17e9ef1be4f7U, 0xcf3f5ead203faf7U, 0xdcad0b0cff3fe6d1U, 0x19e4190af11ee7e0U,
  0xeb10e60c151b0802U, 0x1ee2cbe3470c02f1U, 0x20f8b216f0e8c808U, 0xccad32e6013ee8e1U,
  0x811b14130ff3fbf0U, 0xee15382df98f1df1U, 0xe32c21e8d3fbf711U, 0xf0e6f901ecf9efU,
  0x27060bccf6d90610U, 0xed6ee170eedf31aU, 0xf91b121310e8edf8U, 0x4905163137f9fff6U,
  0x31f315e1230dfc12U, 0x42b071db51cffefU, 0x22eae7f4ec120a03U, 0xfb02e51120ff1b05U,
  0x24c2f30542f2fc18U, 0xf61705c126f806fbU, 0xd4eeff7ee3e731fcU, 0x1cebfb03fef109f3U,
  0x110f130b19ddf4U, 0xddad13ff5be60cfaU, 0xe3e720df39f000c3U, 0xe407f5681f07f4dbU,
  0x12f416e8e40f1adfU, 0x116d5ebd5fb1ac7U, 0xc25d81015fc11e7U, 0x1d1919f8eafc080fU,
  0xf410ffdffd221ef1U, 0xfdf103f70df7e4e1U, 0xfe1017ec1afbf811U, 0xeb18152cd80808eaU,
  0x9f2eb08ff04eaU, 0xe60009e8110bf513U, 0xe818150e06f5f9e8U, 0x36ffd71510fe16ddU,
  0x10ebe4fde6f735f7U, 0xf2e9020d05e40401U, 0xfde8fdf31703f7edU, 0xffcf6ebfa000806U,
  0xf2e7e8f100fa060aU, 0xe4e712f3e50af4efU, 0x1cfcea191ae4021bU, 0x409fdedea0a02feU,
  0x122bffff04e914ecU, 0xbfe0bf2040a1c01U, 0xceef7f612ebff0cU, 0xee0e0bdd00f10c14U,
  0xedfe0bfce6e414f7U, 0xf3ed0a15f5f7e20aU, 0x4f3f9e9f200ec12U, 0xfee80af01803e4f2U,
  0x150b030512f8f9efU, 0xec0f1e0d14f8e7f6U, 0xf9f209111d28ea11U, 0x2cf3f401f9eb1b11U,
  0x1101f8faec0ff019U, 0xc1efc19f90404feU, 0x1deeec110116f310U, 0x10fcf3f10bf4e7ecU,
  0x1508e0f005e7ea11U, 0xe12ffe2defae303U, 0x807180a1b0c02efU, 0x705f009e7efe716U,
  0x14ea001013f60226U, 0xfcfbf3fbff11f3fcU, 0xebf203f7ffefebf9U, 0x71703ed1709ea17U,
  0xce031a38e4edf41eU, 0xc9eb28ecf514e9c7U, 0xaf316e903dd152bU, 0xea96e444210e0005U,
  0x15d50516b9be260cU, 0x9127450a521001d7U, 0x4bfedaf1dd1df7dfU, 0xf81650dd810dfa81U,
  0xd2800beffdc07bbU, 0x20140703f00318c2U, 0xeaf605fcf1ed0623U, 0xc6ec25fee3e50419U,
  0x1d0017e5ebf1dae0U, 0xd809042bdf1723e3U, 0x1232d02b1038fb5bU, 0x61a42f03a20d7fdU,
  0xf6f5f7fcfb1e23d3U, 0x402f5e80d181622U, 0x805d0f5d1f3f807U, 0xe8f1050eeb1a3e19U,
  0xf3021bf5ec0911efU, 0x1901101e001420e6U, 0xfd16eb09e1f0e612U, 0xde3aef43eef129fcU,
  0xd77329250027e89fU, 0xefecff2ca8470505U, 0x2ae1e0f3eb1adc0bU, 0xe506e8da08fd0ec9U,
  0xeeef08360f18e1f7U, 0xda1ee7e6e9e128U, 0xdfe40b08eef0ea00U, 0x18e2eefffa13ccf3U,
  0xfa14ef0ff6251125U, 0xd50603f2e31003f4U, 0xdd11f0fd26dfea01U, 0xe313f0f224170ed4U,
  0x13172bcbf7e5f7fcU, 0xdbd711e207dcd505U, 0xeedd0bec0c000e3bU, 0x4ebf10307120f14U,
  0xec0d131f0714e2ebU, 0x201f3ff030421e5U, 0xece9ecfafce0f1fdU, 0xf111ecfe0211e325U,
  0x7fffd04fdf8edefU, 0xe220fef71323e0ebU, 0xbd907160312e806U, 0xd08f4ffeb18fcf8U,
  0xc1dfa20ed1bf423U, 0xdeefef02e2ee04d6U, 0xe1ecfb1e031af312U, 0x60ffeec0c1f0ee9U,
  0x1ffbee20101d0debU, 0xe5e0e8031700ecf7U, 0x8fefeec24f525e4U, 0x212f324e0dfe906U,
  0x24f3091828d2e819U, 0xfe3eeaf2d01c0f25U, 0x2900eaec231e040eU, 0x22f2162214ebf715U,
  0x12ede91e04e20d12U, 0xff20df01e2e7fc01U, 0x1de20e0b05ff1b02U, 0xe5d8c7d401eb1d18U,
  0x1f2e1212cad6fa17U, 0xf011e5db14f9f4e0U, 0xf105fee4f4e827efU, 0x20fee00fece00b1fU,
  0x170221e3fd16fae1U, 0x1eff05090defe7ffU, 0xec1851fb0808feecU, 0xebd9d8ffebe5dffbU,
  0xfc0b0f25def51a00U, 0xcd14fa081fdc16f4U, 0x47f2fa16fcf9ed13U, 0x4e4abd9f5be5f1fdU,
  0xef111ee5f8ff05e6U, 0x717f0df056ec0551U, 0xd41ef1ddda16dfb6U, 0x34060af8d512dee4U,
  0xb71e0df41ad11613U, 0x1e18e9feecd9f1f9U, 0x1a0b2d0e17e6d2f4U, 0xf7e80df116d815d6U,
  0xd9f9c7e9eb03feeeU, 0xbc0dc0b6e6c0dd03U, 0x27e2031b21190f07U, 0x1d1c27001515daf5U,
  0x9359c03f50420f5U, 0x23371fddf9fcc45eU, 0xf6a6130aa6e5ec1aU, 0xad61d0fe7fecccbU,
  0x1f00011bfdf61ffdU, 0xf9dfa9e6170d0de0U, 0xbdfeb2b90d1b3878U, 0x5f4e40be41f45ffU,
  0xfa19f5f303def113U, 0xf2eee02023f030f9U, 0xee2feaf2e9e016fcU, 0x1f0eceae019feebU,
  0x19190f0e330bff00U, 0x17071a18f906fbf3U, 0x1ef3e1e7f13d21d0U, 0xebcc03f7dfda0b1eU,
  0x1feaf40eeb0dde0dU, 0x1406e20116e4ebfcU, 0xf601fae22101f015U, 0xf0e1c0f3d816fbd4U,
  0xf4000fecefdbc721U, 0xf0daee05eaf51e25U, 0x91821ec16dde710U, 0xe11913daed17e1efU,
  0x1413000fdff916dcU, 0x1ed0ef7faf603f2U, 0xec1405fdf72113deU, 0x4150cfc11e5fa03U,
  0xf8d4d9d70c0efb20U, 0xead8fac4110d0101U, 0xec17e1e3d61c0deeU, 0xbeadbd917240b14U,
  0xfc19effb0feff6f4U, 0x1c13e5d605dc1df6U, 0x3170216ec21fef0U, 0x6e8ece3ffe3e5edU,
  0xeeb0d1ddd1beb02U, 0xd9100fdbda020404U, 0x29e50ff2e904fef9U, 0xe6feb8b0ea27ca0eU,
  0xe3ecddd7e1ff0bdeU, 0xd9031ef2dc170011U, 0xebf70bf9e5ef131aU, 0x23e9eb0ae90ed8deU,
  0xe2dc2518f513ebfcU, 0xe4fb10100cdf1b26U, 0x3141b1e1ef322fbU, 0xebfff6f10dece11fU,
  0x1509171a0601fe1aU, 0x6e913d5ff17ffeeU, 0xe2e5f1e70405add5U, 0xee12e7e6e5e5e807U,
  0x20fc8edf0806e812U, 0x10edf9eaec0326f5U, 0xb1a18e8fefaeaebU, 0x1800fce700fb18e9U,
  0xf0f6ea36fefa0320U, 0xe4d715300f0c0823U, 0xf9020df1121f5cb9U, 0xf5097fcd0159e40fU,
  0x1f0ffc14122b10daU, 0xf7fcfffb10edf3e0U, 0xf601f9f214f8f706U, 0xfdf5edf0f90d12eaU,
  0xf0f4f5fdfde6e7U, 0xe403e3f7f2000f13U, 0x8d6e1edeef9f503U, 0xb0be5e9f1cbd3d2U,
  0xe5e7f4e307f1dafdU, 0xeafef2020c0c070dU, 0xee913e8f31413f4U, 0xfeeffaeea6107U,
  0x1b2f09d9da12e6d1U, 0xeaf20f0804f0fa10U, 0xf6fe09140410f111U, 0x24abedf0f008f8f0U,
  0x801f3f03d7f78eeU, 0xd3ec3ce1093808d7U, 0xb17001115f50a04U, 0xeefcf3160aee0cf6U,
  0x7f6f90c1015140dU, 0xf10df71411f513f7U, 0xed34e7070a141001U, 0x10faedfe090df80bU,
  0x1012fe000cf3ebffU, 0x1f1160dfdfb0af4U, 0xef01161706fdf618U, 0x1900140508f906ffU,
  0xebf0ede804110c0fU, 0x3f608f2181eef10U, 0xf71204eceafc1909U, 0x1701ed0bf0eaf4f8U,
  0xfaf8ee0af6fd0b00U, 0xcff1606020dfaeaU, 0xf6e90e0b11e7effeU, 0xd0beaed130c0af0U,
  0xeaf0020af801f4faU, 0xe411edfb1205ea06U, 0xfb0cf706e808f212U, 0x15d1dfedef09e00fU,
  0xe6ee0602f2f3eceeU, 0xfb09f8fdf41408f0U, 0xec17f8f011190cebU, 0xf90e13e70efefb05U,
  0xeeed07f900e9f9ebU, 0x418f017f9f4f6f8U, 0x810e0edea0709e5U, 0x9f20312e6eef5f7U,
  0x1b0be8e8fb040c0cU, 0x111281560eded05U, 0x4060cf7f00ef5fdU, 0x10eb04161603e713U,
  0x1eafbf817e2f3ecU, 0xf6000eedfde4f9ffU, 0xf0eae8f8eae9f5eaU, 0xf5f7feffe9f20305U,
  0xf2fee8fa18f91917U, 0xfd0bedee0a062cefU, 0xf4fa15e9f0090608U, 0xfb09fc00e9e502ecU,
  0xef0012071ae6e7e7U, 0xea110a09fbed06eeU, 0xa023fff2060b0df1U, 0xf7f9e1effb36040bU,
  0x1b27f7e0feef0ae2U, 0xeeef09030105fffbU, 0xe31501f2fd300ee2U, 0xd3bd0a04d2f9121bU,
  0x17f605f82d1d563dU, 0x25025723045306efU, 0x2405f1edded2282eU, 0xf015eb080f11f41bU,
  0xcdf3f5ef1ad90bf6U, 0xe4fbead9ee020743U, 0xa04220df5fa05f2U, 0xd30807f1e7ee1308U,
  0xe0000afdf60ccae0U, 0x24c5eefee210ea1eU, 0xfcedeff6e2f70ff9U, 0xf50708df0fe308ebU,
  0xb00ddb0cf7ffeafdU, 0xec0af00dfe30e50fU, 0x3429be10f3e9021fU, 0xe5dff9ecfaf5f881U,
  0x1aeff5e6eaef1001U, 0xc1e1fce40202f6f8U, 0xc106ee341d25eb09U, 0xfbf10a2ffc03c310U,
  0x3e1e501f103fec2U, 0xfae5e912fbf2d702U, 0xada10f3e4e109f7U, 0xfef2f0090401ff27U,
  0xed020808cf02f8edU, 0xeb18e50afc070e12U, 0xeae8e8fbfaff19edU, 0x2015eeeb08e9fef7U,
  0xf80114f5fff9d9f5U, 0x11040bf4ed03dbedU, 0xeee7ec0ce011f102U, 0x2eb00f80003e6dfU,
  0xfc0efed9cc17f9d1U, 0x6f3ea05ef0017f7U, 0x15f8e3110b17fdfdU, 0x111306000f16f9feU,
  0x1507fa15090eeb00U, 0xf109f10af3feebfcU, 0xebe8f2fef702e1ffU, 0x606ece40ce9f0f8U,
  0xd4eb01f818f305dcU, 0x10e10ef8fceceeeeU, 0x14e5e8dffbfb0808U, 0xe9f918f903f0ebe8U,
  0x15e6dff113170e19U, 0x1a0716fa1a060318U, 0xeaf7e6f2ef0de6e1U, 0x1a05fa0e05e9f119U,
  0xe7fc05fae80502f4U, 0xef502f111e21107U, 0xf3bbf8050bf0ecf4U, 0xbfdcdf04d705fc02U,
  0x14f50914f91105f7U, 0x14e2fff00afffa06U, 0xe6fb0be8ff0a140fU, 0xe90be7ec16051704U,
  0xe4f0f7fff1ff1019U, 0x1301f2eff10bfe15U, 0xf9f51e0218ee1ceeU, 0xeafaf4ff0d11f6efU,
  0xf10fedd5f3120aecU, 0x2f5e8080ef50a09U, 0xede306fae1f105e9U, 0x2d8faef1710f1e1U,
  0xd9f112e5fdf2f601U, 0xebf33e1318fb0313U, 0xdceeef0439e8f610U, 0x2ef5291cd4042703U,
  0xea3ce4d00d113107U, 0xcbe4ecfed3fc1009U, 0x2de1e13a7c5d5e5U, 0x9ede1cacbff0fa0aU,
  0xf5180d212fa6d6fcU, 0x43ec13fdd0db22dU, 0x19ed092d0bf8da1aU, 0xfed8f6e51cebeb0fU,
  0x110d250537021904U, 0xd9d4f7d812fa100bU, 0x3aec4c700eaf917U, 0xbe1b2517e206d6f0U,
  0xe9f80343fd11cb90U, 0xd9f3eff70de6111cU, 0x7f9040504f308fdU, 0x3ec1f24adf096064U,
  0xfab136010c0bc805U, 0x2f0f70fd0fdbd1eU, 0xfb2e14fcdbde1c08U, 0xe1fdcddce8dcf11aU,
  0x1627e332d91ff41cU, 0xfc0319fc1614ee1eU, 0xf71542304317ab81U, 0xf03b2c12c72f2622U,
  0x2c0d291fdf43003aU, 0x6281cfc2d030ff5U, 0xe0460a2a0800fdfaU, 0x1d0c131dff1d0bd8U,
  0xfdfbd516221421f2U, 0xf720f7e1eadd0aefU, 0xf02efee438dbe601U, 0xd9e2d3321ae940faU,
  0xef2ce71bf3020611U, 0xd81607051e20221eU, 0xe902f7d3463cc3c2U, 0xb0507e206071917U,
  0xd61c22e9e7fcf811U, 0xde15d400fcd5fc1cU, 0x1b03f11508f4dff1U, 0x18ffe4210d11db05U,
  0xffdeeb13f907ea20U, 0x8d70de8e108dce9U, 0x1ddfffdc1319f70cU, 0xf00f21dd7eafa01U,
  0xf0e0fad7e5f2c4c5U, 0x7e9e8ebe318e8edU, 0x1eb12fb18e219f2U, 0x10f00419e418e9daU,
  0xa170afbe4dc05f1U, 0xe721fc120c131806U, 0x7fbf515e711e009U, 0xdf1510f0e5e800f4U,
  0x33f4e4fa18e7dcefU, 0xd60ea8d5ccd403e9U, 0xd7eee4aecdd00f36U, 0xffd9e3d20bffe8e0U,
  0xf6f7040d08e3d7d7U, 0xe811e8f5f412f1f0U, 0xd17e019f0171c11U, 0xe4e41ffefeeaf013U,
  0x1d0539f3ef490e3cU, 0x19f4f62b2302e72cU, 0x211c2d0811182401U, 0x28e8e9f00cf7efefU,
  0xf5d8e0c3f21e1515U, 0x52af9eff1eee5e1U, 0x10f3e6dadcd80a0bU, 0xf10f2e1f3ef192dU,
  0xf9fce31e0cec231dU, 0xfc1709e217f6eb17U, 0xe4e8f3f0dbf73ef3U, 0x1ef70ee7e1f1fe07U,
  0xf40bda97f5d7f9e6U, 0xcee0b8e002f7e014U, 0xec04ea2ade06c5a2U, 0xcea0fcde2d737e7U,
  0x1d0610e318f71fecU, 0xeff1e11900c622e7U, 0xe1f40adfdbfbf70cU, 0xe1eee1f6e9dff9e4U,
  0xdb0bd51b0208f4dcU, 0xdf01fcf61c01190aU, 0xf30350e2f8fba8cfU, 0xebec0d0e06f70112U,
  0xae2f00c0514fe1aU, 0x90a13f2f6fc0c0cU, 0xdcf1f90acefb0a34U, 0xe9e3fde6fe45c5d8U,
  0xad6151503090affU, 0xe90e060d0df0f91cU, 0x14fdead2fe031b0bU, 0xef29153c3cfc4527U,
  0xf1ee20111bd08191U, 0x121df2e808e1ecf5U, 0xf2e81c10fa0efc12U, 0x10eff4031d1ae20bU,
  0x2f301700ede00415U, 0x11f005fcfcf1dcd1U, 0xf0f5fc210a01cb11U, 0xe4e3edfd1e03f6feU,
  0x1dfbdb0cfc07c21bU, 0xd1c08fae126f105U, 0x1f5e00bf1e8e90aU, 0xf4e8e4ee05280ef0U,
  0x261816361ed7f1fbU, 0xd14090efb09eb05U, 0x14ea0c041dfc1512U, 0xfce20fffdcfbf7eaU,
  0x8170300ea0c1005U, 0xdf05fffef0e1f6faU, 0x401d9f519051bf5U, 0x10ecf803e503f4ecU,
  0xfd1afc11e8f50610U, 0x26e9f0e100e70df0U, 0xe6ebf3fcfecaee05U, 0x1cfff802e1ea02efU,
  0xe60102e0eb16f80dU, 0x19f515fee2f41514U, 0xf5e9e6ea00e80d01U, 0x10e120f15181602U,
  0xc0f0e1ce3f5f6f6U, 0xefde0f01e410e817U, 0x418f409ed0507deU, 0x16b2fadae70d022aU,
  0xfb13fbfd1e032a01U, 0x12ea150d1406eef2U, 0xede605f9e3e5ff07U, 0xa1005eae1f5faebU,
  0xec1923fcf417deeaU, 0xf810160718fbe6f0U, 0xe7fe102405edfff3U, 0xf9e91bf8f4ed1918U,
  0xf402ea0406fbd6deU, 0x14d8e509f4daeb28U, 0xdff3d3e8ececdff2U, 0xff6e316f50ee9fdU,
  0xe6f509f1ff08040dU, 0x3842ab383a3813eeU, 0x94026300ff2898f5U, 0xeea405988be6476bU,
  0xe890a961572f94ffU, 0x294c11d2070d32a0U, 0x7814794ce5e2ea25U, 0x9bccf9681004571eU,
  0x6fc52a46cb4b305U, 0xd3860f3e4ecfe5cbU, 0x505420aa9b372f98U, 0x3192bdb7ca0730daU,
  0xe8dc18b4893dc714U, 0xa445081458a33850U, 0x5035a32f6017fd06U, 0xb946108f16b4ae1U,
  0x183904158c47a111U, 0x2bfde2395ad4a38fU, 0x28dba5b23dabb44eU, 0x21e541edd35ebba6U,
  0x95aec6460810cc97U, 0x102b274e0eaab88dU, 0xe641c8b14299a918U, 0xc8e3c6df69cec828U,
  0x24fc9c642ee2edbfU, 0xc018a322baf50c4cU, 0xcb939df17f62f554U, 0x9dd3abc6eaf0061aU,
  0x15fe044418ec0651U, 0x255cbde60fd794c2U, 0x4ebec0b8dbf83758U, 0x5bfa51ce57159bceU,
  0x38f67b16aaaff1bU, 0xe6c3011721ac674aU, 0xef9caf6c47269515U, 0x7159bb9383cfd236U,
  0x3642b02fa1ab12f0U, 0xceb9c14abe255446U, 0xc8f344a8e1b32864U, 0xa9f627b25d671750U,
  0x526628e1cbdabb7dU, 0x3bf799a4deb9fe6U, 0x946de4515aa1caf8U, 0xd52268e4399cb226U,
  0x9f3492f1ca4626b9U, 0xf1b908b5c3296332U, 0xd65693e4406cbd5U, 0xf5712c505e22b1afU,
  0x783e9b508e49223eU, 0x4bf5e2b7c9968cc9U, 0xf15d489baf6c5d6aU, 0x9328fb7402bac948U,
  0xa5158d063aa46c6U, 0xde04d3511bdff7d6U, 0xbced67541e33359cU, 0x5defe72df3453da5U,
  0xd8be18495e8f5a39U, 0x1b7193c44d3826b6U, 0xcc660fe04eb9abafU, 0xfb50746fea61b4a5U,
  0xf106657c5ef9e2b7U, 0xd6359443b63fae6U, 0x55ee5cb4f9bd34fdU, 0xd450116cf168621aU,
  0xd26a0e1913603111U, 0xff189e2426906b59U, 0xd261fc5ee4ccee03U, 0xc6cc2f3ce6260fU,
  0x6b9b68216431f629U, 0xe1c8490dc0449b1cU, 0x18204d0c481e04b4U, 0x1921eeb740cc4222U,
  0xef8edebea02fe01U, 0x7f7f2fe070f0ef0U, 0x9f2130a0101f10aU, 0xf2f2340d1e0714f7U,
  0x1479f0e006332008U, 0x65f6110bfa08f4fbU, 0x805efd32a7f0518U, 0xafded23fdf505faU,
  0xf7ee04030afcfd03U, 0xf603f80711fd08eeU, 0xfc07f7f1f3040608U, 0xf60a0bfe0df90f08U,
  0x8fbfcefee0201eeU, 0xe5e7e811eae202f5U, 0xe6fbe8fb25fe08f6U, 0xf1f5070a030cf4f4U,
  0x7f2ff03f5fbfd0cU, 0xef3bf611dff5fc02U, 0x7efe70817e107e1U, 0x131309e3280efef9U,
  0xeef901fd0bf201fdU, 0xf0fbf400f003ff06U, 0x5339e904cbf7f5f7U, 0x1d03ba04f7d7f541U,
  0xbee0c01032ed10dU, 0x15edf7f108ed0d0aU, 0xf2ff07f8ffecfefcU, 0xef000308ef0eff04U,
  0x4040901f1ffedf3U, 0xf0f50d031bf9fddeU, 0xfc17f2fcf6f7ff09U, 0xf408fa00010906feU,
  0x6f022ec07fd0001U, 0x10a00f6050df609U, 0xedf9eef4f9f0050fU, 0x504f8ec0cfff406U,
  0xec0ffbed0517060aU, 0x9f5f70af6fa06e1U, 0xfc06fc0deef0f0f0U, 0xff0ff20a08f2f1f1U,
  0xfe0cedfc100b0efeU, 0xf50203f2f8fd0d02U, 0x602e902fbf10202U, 0xfbf1fd0cf00b0aebU,
  0x1002f5f3f5f308f3U, 0xf50808fcfaf10701U, 0x1fb0901e9e5f2eaU, 0x4f1fffb0d0c010dU,
  0xfb05020d07ff07ffU, 0xf004fa11fdfaf4eeU, 0xf0ef0c0107f7eeeeU, 0xd02f806ee0e0ff4U,
  0xfaecfbeff2ffee07U, 0xf406f60b0d07fef6U, 0xbfffdf709f20a09U, 0xf5fb120104e201eeU,
  0xeef4fd09f613e33fU, 0xf10211fbff110d03U, 0xe0df8fff1fd07efU, 0x7f6ff0b0d04f911U,
  0xfd09f60d01fb0ffcU, 0x1f6f8f505f50111U, 0xfefe0cfb04f807fbU, 0x80103e8f005f3fdU,
  0xea04f30ef009fef9U, 0xf8f609eff5defef2U, 0x402f60bf9f0fef9U, 0x50af3f0fe050616U,
  0xf0151edbe90102fdU, 0x3810e899060ef902U, 0x2f706f80011ef27U, 0xe1f2fc100ffd07f2U,
  0x143120ec050dfef4U, 0x8361e08103fecf5U, 0x7b00e7090ae5fc2aU, 0x4f8eb11f1ff071eU,
  0xecdc95037f040659U, 0xe809fffb19ed1a10U, 0xecdf04f90cf7efffU, 0x13fb0df3fe0408dfU,
  0xfcfce70b16f801ffU, 0x2e8edee272a27ffU, 0x8fc01d80bf41103U, 0xfef706ebf6eeffe3U,
  0xdc19f83e10190dfeU, 0xe2fc00eff214ece5U, 0xefef16011c1105e8U, 0x1fe804f9e7f80fedU,
  0xf21f0723daeee50aU, 0xfefce24905150814U, 0xfdf21bebf21af031U, 0x1a03070d051f24feU,
  0x22df2fd8f00feae9U, 0xd3bc0dd9e112162fU, 0x17e01a254bd50a0cU, 0x8ed1600e30bfb14U,
  0xec0cf50e0e070014U, 0x9f825eaf6f2fce7U, 0x1debfeda11201beeU, 0x10f50f1b16050901U,
  0x30e16f9f2f8f1f7U, 0xe5f6f9160a17fbf4U, 0x1612d81de3eee8f7U, 0xeb17f1e6fcfd0a12U,
  0xf300e7fc01f0dcf8U, 0xb0aec100cfcfff9U, 0xd9052cf31c14feU, 0x11f803f5e9daf8d4U,
  0xf2fd03040710f116U, 0xd0afef512040aeaU, 0x1bfbf5e915e9ed02U, 0xb13e5000a04feefU,
  0xf6f1f80c061a0a12U, 0xa00e80df9e70a20U, 0xedfd110205fdf607U, 0xfd1ef708030bea08U,
  0x150efce906ddf7fcU, 0xfeea05f0f2fdf5fcU, 0xf40901fde710f5edU, 0x405f502150debf5U,
  0xe9ef19fe06080203U, 0xe8160cf418eaf700U, 0xeb00eef21b0003f9U, 0xf3041508f1faeb08U,
  0xe310eef30d0a0eeaU, 0xff01eefce904fff6U, 0xfbdb0ae517d71a19U, 0xa04f2e0eff2d2e4U,
  0x14eaeffb02ecf0f0U, 0x5e70e0e11f6e515U, 0x905f5e4e217020dU, 0xf03fc1613e4fff4U,
  0xef0b0b27e2e514edU, 0xfce5fb1f15220816U, 0xfdedf7fdfd1df007U, 0xfb170d1abfe5f6f5U,
  0xf410e4f5eff31716U, 0xfef4f90ffef20c24U, 0xe9f9f0e31e13141bU, 0x101ac181bf9f505U,
  0x50b07040809090eU, 0xfcf70208f708fff8U, 0x90d09fbff0301f5U, 0x22fffe000e1508f6U,
  0xb02e50e240404f9U, 0xfaf7060100fa0a7dU, 0x100c1d7f0212790aU, 0xeb17010bf5f50702U,
  0xf503fdfe070af3ffU, 0x604f8f90404fa06U, 0x203fbf400050804U, 0x40003fb07fc05f7U,
  0x1707f9fffbf4f8fbU, 0xf302e3e9ff03fdeeU, 0xe81b2203f0e5dae1U, 0x905f10d0402f5f9U,
  0x90a040c01fc0af6U, 0xa03db0309fef608U, 0xe40710d4f4eafd3eU, 0x1fa05f6e7ea16ecU,
  0xf3fffff5f4f8fdf5U, 0xc0909060ef30802U, 0xfd0cbbfafdffff00U, 0xd302eccf05325b44U,
  0xfa070e19edff1307U, 0xfcfe05fb080a00fcU, 0xf3f9f8f80c0a07f6U, 0xf7f800fe050a0b01U,
  0xf3fafbf7060b0af9U, 0xaf711f3fce706f5U, 0x5f8f4f90103f4U, 0x9faf5f4050dfbffU,
  0x19eff8f900f7f8f3U, 0x8f302ff0803010aU, 0xfc01f6fc050df702U, 0xf501fcff0808f7faU,
  0xee7060e0a01fc07U, 0xf40c0603f2fce505U, 0x20cf605fd01fffdU, 0xfe07f80af7f7f50aU,
  0xf8040c0807fa08f9U, 0xfff40cfc07050300U, 0x70cfb02fd09f806U, 0xfb03fef40afb02feU,
  0x2f4000507000108U, 0x8f6000502f90b04U, 0xfefaebe9f7f9fcf8U, 0xf9f6f900fc1107fdU,
  0xfe0500fe02fbf5ffU, 0xf6fbfb010408f307U, 0xfa02fbf60605fb06U, 0x702050b080afa05U,
  0xf900ff09030107faU, 0xf7f6fdfff6f1faU, 0xb08f80afe060102U, 0xfb0b0adb0809f2faU,
  0x14f5f5ffe33bfdfdU, 0xf805fd0207091604U, 0xcfbf9f50102fb09U, 0x302090c0af6fd02U,
  0xfef7f5f8f7f6f9feU, 0xaf7f906fb0bfcf4U, 0xf900ff060a020300U, 0xf6010405f706fbfaU,
  0xfcfaf9f6f7f40907U, 0xf8fe0701fe0809U, 0x7f80afb030303f5U, 0x90af2f70104fbfcU,
  0x402fefdf70604fdU, 0xedb7fdfcf7f611feU, 0x24060f38dde6fae5U, 0xd8cc211ef94cccd7U,
  0x1c1ff925d920fc08U, 0x2211d8b93130d3efU, 0x5bd77ff51e0ff9edU, 0xfad8d7e703211cfdU,
  0x402306f7f5d634f4U, 0x21da120809dacb18U, 0xd0e371107fa0814U, 0x2afd221032de1dddU,
  0x17fb1c46e122c32aU, 0xf4ead2cade0bb32fU, 0x345a07051b2030f9U, 0x2017d766400ccd40U,
  0x342f753509f9f622U, 0xefee0a28f6d517bcU, 0xebda0f19f1f915d6U, 0x8312e732f5f32aeaU,
  0x1609cb3c2df5e714U, 0x2f0c049260b142eU, 0xd38f4ecfc1744feU, 0xf4e721e8f8e821fcU,
  0xe902f6ec09f7d80fU, 0xf4fcff2a16a2ff2dU, 0x6f6a133dbec0f92bU, 0xd0fae5f0b4bfb712U,
  0xced325d1e6e618f6U, 0xd71d12f0d0e22cc4U, 0xfa331c1ff70ab3f4U, 0xfe123bb4e12b0aefU,
  0x60a05e309ff2f04U, 0xfa0a29e0032de509U, 0x27dee9fcfb062915U, 0xcbec2dcaf039da05U,
  0xbdf1915faf82234U, 0x20e3300fd5f1c306U, 0x43f82d08ec17f31aU, 0xfabee224e401e7bdU,
  0x17e8f1eaf9e1dd1aU, 0xebe136ea110000f4U, 0x6ef0d1afb1cf52cU, 0xe81026f604dcf20fU,
  0xddcf9f8dafd1ee7U, 0xf909fd0aec25fedbU, 0x1202fded1f38e121U, 0x48f72a11dfd9190aU,
  0xf1331cd14e00f847U, 0xff31d922011a2b02U, 0x7eafe1dd1d611dcU, 0xe7def31dcfe4fbf8U,
  0x1adb0e19f4f525e8U, 0xe01fe5d70118f928U, 0x2b16f711e90cf4dfU, 0xea061a362bf920e4U,
  0x23e81ffce7122fddU, 0x35053f0bf2c7d5f5U, 0xeafe1c162e15290aU, 0x132b0af63812dc27U,
  0xfdecdffbfce1e035U, 0xddfe16d8e1e913fcU, 0xf602dafb030eebeaU, 0xf2e1fdf5dfe6e713U,
  0xcab7051e0706f1e3U, 0x1111c0c0a00f05a6U, 0x5272aec0114de2dU, 0x2753f9002e0020e4U,
  0x6161eff01f7f119U, 0x2114290915342a2cU, 0x2915ebd813f5f7f7U, 0xf4dbff13fb15193aU,
  0x270bed20013c02fcU, 0xdfff3ce80213e102U, 0xb812da11eede0e23U, 0xe20056f9df254916U,
  0x2a9edf300034bf5U, 0xf3f509f1363722dcU, 0x3745284b24021cddU, 0xcdaf7ebf1cb0fabU,
  0xd8f42de522ca2103U, 0xe5f6ddf3d9150226U, 0xfc120ee8f5e2020cU, 0xe9097f16144931efU,
  0xfdeacd070205ee02U, 0xf6ecb5eed2e7fef8U, 0x45150b105920f807U, 0xfcf9fddfef01e6U,
  0xea05dedfd80812fdU, 0x1efad807060809f1U, 0xf7ef072128f82421U, 0x32d90e0ef4ef2febU,
  0xcd140af646f503b0U, 0xe60afb1cfdd20c1fU, 0x1ff6eefc0112f0dbU, 0xf7f0faf6d4badc2bU,
  0x3e67ea0412b9c7dfU, 0x8dffd2f13252015U, 0x3f12e9242201ecf3U, 0xe5041dfde9fe392cU,
  0xe1d2081ff30cf815U, 0xd1fe15eb1f3803f7U, 0xe6ed0ffa0e0c2e1eU, 0xe4f015d6f4f8f81aU,
  0x1dd225f1e319efeaU, 0xaf50b2dff05dcedU, 0x13ee09e9fe0e0ef6U, 0xfb18200cda0510f2U,
  0x21d90e17df382e0fU, 0x10fbd3c5d0eee926U, 0xe14f6f525070d11U, 0xfdfaffff09e614e0U,
  0x12df0319df060f0aU, 0xf80b13180adf0de6U, 0x10dffa07e4e1e4eeU, 0xced1c092c22251eU,
  0xfdda19f8ddf2ff11U, 0x1008e804e414fc1fU, 0x519f82b15e941fbU, 0xcef1d1db04fe3839U,
  0x70cdef9031d1cfcU, 0x8d8f8f61d0cf41fU, 0x10fc121f0206ea1cU, 0xfee51805f7fdf91fU,
  0x232001ed0d230e09U, 0x1cfe190a0d2be3f3U, 0xfbf318e8f8e32220U, 0x1decf11e10e8e1e4U,
  0x2affefb12b00df30U, 0xdcfffdf2a4e8d9fdU, 0x4faf51dd609d6eaU, 0x1802df0bf41317d8U,
  0x18dd05f6d4e2e1e5U, 0xecf1e10df312fdf9U, 0x56e5fa14ed03faf8U, 0xfe302541f0052a0cU,
  0x173930f8caf1baf0U, 0x4504db270cf31804U, 0x1cf0eeee01042529U, 0x15e60907150a2d1aU,
  0xf2a1ae70be0fafbU, 0xcae82cfbfdcdf531U, 0xd7e53e27470ab4f3U, 0xee00f503790bfb46U,
  0xf8e50b1eea353ee5U, 0x1b65f10241601d9eU, 0xb4bdca13f42de6f9U, 0xd213d4fc3de8add2U,
  0x401a4a38faecdb0bU, 0x15f619040705d416U, 0xffb043bb1f9ed32U, 0xd10303e2d9042712U,
  0x70af0e03d20fcc5U, 0x3e7533497a36fb20U, 0x2dd1cd1125e5e031U, 0x3e94dabae7ccf5feU,
  0xa7041a070233050bU, 0xeb192814e820b005U, 0x15c1df0af3eb0ce2U, 0x1b080e2a20e03007U,
  0x2db30703cbea4d0aU, 0xd41bff1dd957f3e1U, 0xfb02ae45e5de8a17U, 0xdcee39e2b60ce2c7U,
  0xe008dcdbd501d626U, 0x1be90d1bddf3f7faU, 0x62f8141dc5a501dbU, 0xe9da514b4cf5e8dcU,
  0xb1c1524cf1ee133U, 0xb0f0ff41d4a363cU, 0xf010f429dd3d2df6U, 0xf6111b142101f413U,
  0x141331fae1f725cbU, 0xed1cd0c718fc1d0eU, 0x2f09dd1b120a1c01U, 0xf249e104f5cdc023U,
  0xdddba814190d3dffU, 0x91bf31713fbf403U, 0xf6d61fcd00fd090eU, 0xeac5b89bff39e804U,
  0xd5d729e31d23f714U, 0xd30c2bea13220a2eU, 0x1ec219d1130b29e9U, 0xf4270ff0f1eae80aU,
  0x19291217ee1b17d5U, 0xfef11c36e817e51cU, 0xdb0fdfe6f4f9d906U, 0x2d2af9f5fb09341cU,
  0x3fa12eff70aea34U, 0x24f202c9e91bf52bU, 0xc0e0834eed4ecf5U, 0x20916efef091f14U,
  0x1606ddee0dea29f5U, 0xefd800e61f0e0ef6U, 0xf52504f82d29e3e3U, 0xd0ebd0321f01507U,
  0x18dc1fc6de12f5d8U, 0xebf318c722e30710U, 0xfbd3c819f0fc20f0U, 0xcff0aea0e8dafd26U,
  0xc32acdedfd07f0c6U, 0xe31ad2ce07f8e8f0U, 0xf225f50cdf2a26e2U, 0xd9f20d191b21dc06U,
  0xd1af5d71afaf3dfU, 0x123c48f8dd5e0f7fU, 0x2f040005bbb814faU, 0xe5dc0bfade0c0d07U,
  0x32f3f3f6ec35041eU, 0xfbebc82f173019fbU, 0xfb0a0f02ec032222U, 0xfa1be80302d7faf0U,
  0xffce92b21dfb8bfU, 0xfde20e40f9f52619U, 0x21307f21708defbU, 0x54d8d6eb23fde817U,
  0xeb0a05f21ceef003U, 0xefe2151781adffcfU, 0xa5ff26b2dfdcf9f7U, 0xee4483694bf153dU,
  0xfbf33abbdd122d18U, 0xe108d9e7fb14f80aU, 0xeff50bf702faeaf1U, 0xff41135eafe230cU,
  0x14fff2fd09dd2021U, 0xc6e0b7130ceaf61cU, 0x320725fc0f072923U, 0x151b36e626d708e1U,
  0x13eafbe710d515dbU, 0xfbf3e30be2ef1ef7U, 0xd2d7f003090dfff3U, 0xe208f7e9f2f51439U,
  0xffe2414e0eb34f1U, 0x1ee9eff9fc06e01cU, 0x7d3f6000e1d1aedU, 0xfff23be2d915fae8U,
  0xe82e0a1a20124330U, 0xeb3bf3021dced81eU, 0x1e21fdf312ed000eU, 0xf4f10802101a0208U,
  0x1c13fceef6220512U, 0xef1913ecf31efd1bU, 0x7f3eee4f61927faU, 0xf6ad0bd232f7fd18U,
  0xf00b1cf6fcfae903U, 0x32e3f5f604d820feU, 0x3f1fd0ef50a081bU, 0x1218ec022e0b060cU,
  0xf40a05f2112f0ce1U, 0xc5e700f315130ee9U, 0xff1905f3dfee1ff5U, 0xf0ff0f0c0fe91bf0U,
  0x1dedf604101515f4U, 0x8ed1efbeef5e1f8U, 0xfcf9f80a04dae511U, 0x5161016eefd191eU,
  0xd3f7e2fffadaeee7U, 0xddf0e21e04fff50aU, 0xffd4f8d503fd2004U, 0xf412d1d21ce40af8U,
  0xee1c03edf91cd1f6U, 0xf80720db0205f5d7U, 0xbe9f50ee3fe1cfbU, 0xdcfae516dd0af112U,
  0x908010aed05fa03U, 0xeedf21f80eebef1cU, 0xe800dfe9e902e3f1U, 0xeef812f50b13120aU,
  0x22cd0cffdee60c05U, 0xe07f2e3e707472dU, 0xbd80402da09d80aU, 0x15ded208fc00d517U,
  0xeafcff020506dce7U, 0xecec11f0032219feU, 0x19fe170b020dfcddU, 0x280afbebfc073e17U,
  0x5172404e7eb1b27U, 0xe5f221f60df4250cU, 0x8f40d1520110917U, 0xdfeaf2f8081215f0U,
  0xbfc10ece8f2f61bU, 0xe1f4f7bce00914U, 0x9b398649f5a24ef6U, 0x16269772a5423c0eU,
  0xee17c5f9e9eef7d0U, 0x9ea5f3fbbe5911b2U, 0xb51e9167021d12beU, 0x66a9b799c72bcb1aU,
  0x661de2f03991c1d9U, 0x37358e3937ecf28cU, 0xc2f54e72f7ba5a9fU, 0x6cb64b00a7b67c9aU,
  0xb6dd2e72af40f236U, 0x486ba155ddc2dd19U, 0xd05b67675d923abbU, 0x39b7b25fa9e046faU,
  0xc7d49098031dd40cU, 0xb802064fc0ed2c06U, 0xc1eab0956c3c9e45U, 0x67ea51140dba9166U,
  0xcdcf9931d7eb6f14U, 0xce5c6c45f2273e8bU, 0xb9598e4edd282bb6U, 0x6540cd73b5b297c7U,
  0x33156932d1cc2706U, 0xe735e1f4fd2e9a33U, 0x3d684a2234a09ee4U, 0x81e456d5aff94070U,
  0xf14f340cfee2920dU, 0x3f0ac78cf61147dfU, 0xfc5c2dbfdb1401ccU, 0xd72dfc9de4e5e9ecU,
  0xbd348a0af0701be0U, 0x47739d066c1a2becU, 0xd22dbf752d1cd7b9U, 0xd2f0bd49639dab7U,
  0x5af75a26e2d56fa9U, 0xf5f32d4359d890faU, 0xff11d64356294e71U, 0x3f585d91dc5d7834U,
  0x213d966794e62591U, 0xb1cd700b9a434753U, 0x1fef4af92198f76bU, 0xaf6d70caab01f465U,
  0x274d2d4d4628edbbU, 0xe063ffe77de11117U, 0xbacdc719ca765babU, 0x9a5162cd34a63bbbU,
  0x9fdfa563221d9df1U, 0xaf723ad0419177a0U, 0xd161d8fb371a5d1cU, 0x92dfb870e0b44751U,
  0xc598c0904a0938e0U, 0x3e7a256e3e63eb1dU, 0x7db93b56b14fe61U, 0x3c2d8bcea4737f02U,
  0xcaf9d9765ed798e1U, 0xda268e0017e60a14U, 0x4010c544c35dacffU, 0xe62f935029de4e4eU,
  0x518f554a18fa03b7U, 0x9dcfb3fdec3c7905U, 0xf28aa322abe6e460U, 0xcf67651d90a2d5c4U,
  0xf04a03fbfa50c607U, 0x3ff1419bc5ae4362U, 0xa5fc76dc3bd125aeU, 0xa703eb5be602abefU,
  0xd32e31b170134c10U, 0x3cbaae105cc24c59U, 0x5c40dc9a3f1152d5U, 0x6d3bac3a255085a9U,
  0xf21ffad8aed1477aU, 0xe7fe18ec19e8e90aU, 0xfa0ff61cee00faf6U, 0x30d2401f90eeb0aU,
  0x81cdd23fbff30edU, 0xfe8b0bed04c5bbe3U, 0x8b1413e104e90513U, 0xaeb21ccef9a1405U,
  0xfbee19e5f0fdf1f6U, 0xf1010202ef102b05U, 0xe61c09dce0f5ee20U, 0x71d011c120604feU,
  0xe911faf0e4f7141fU, 0xe1f8ed1ff6070402U, 0x501121ff1124d303U, 0x71000caf91c192eU,
  0xe8f70efaf5e2111dU, 0xdf03e811fcf4e9e9U, 0xb7f10c69f80423U, 0xe70035ebf71c0f47U,
  0x2f21e5fef9f5381cU, 0x1f21cf1f8f109edU, 0xfbefe8eb0cf8e509U, 0x8d87f2fa4d1f02f6U,
  0xd6cd1d15f82428d4U, 0x2fff6211b1222f8U, 0xfc12f0f30613f8U, 0x1603f313f6fc04e6U,
  0x1800090bfa14f303U, 0xfa040a0aea1a0f19U, 0xec19e6fed227e71fU, 0xe70f0f0a0008edf4U,
  0xe5f0ff1d12f21cf2U, 0xf02d1111a131efdU, 0x1af2f91a08e01003U, 0xe6f60afa0302f0e6U,
  0xf4132716f1050fU, 0xf40af32402ce04f9U, 0xf403fef8ed1a1afbU, 0x18eaee0202e8faf5U,
  0xdeaf804141bee02U, 0x190d070e00f504U, 0x815edf2e8fff614U, 0xb1a20f108ecfaf2U,
  0x7ef0321080e0207U, 0x3e81a19f5e8f701U, 0x6001d19100c0711U, 0xe8ff08132d060bU,
  0xf7f9ffecff020103U, 0x6150aeb03e6f8faU, 0xfae410031716e6edU, 0xe5f1e6f70705ed16U,
  0x5e716f1ff07edfcU, 0x1af0f70a05f1fdf8U, 0xf90221021114fde7U, 0xff06eff0f0e2e807U,
  0xfbefefe9f5541301U, 0xe008e3e735e80f81U, 0x15ffff0cee0110fbU, 0xe2f0e4e005e9f911U,
  0xefe3eff9f3f8f1f1U, 0x1205e3fdfd16f111U, 0x1403000a06f3f2e4U, 0x4061a0005090ef7U,
  0xe3e5faf11ffdf202U, 0x141908e90af110f7U, 0xe818f8fc1715e2feU, 0x27ea1bebf30defeeU,
  0xf8e7ec08faf4e8d8U, 0xffe6e003050c0fedU, 0xadf5f850f20324fdU, 0xe4f622fa203806e0U,
  0xffe8f4f507fdf22fU, 0xd6ede33c0b0bf8f5U, 0xf2ebf81cf3e20b20U, 0xfbf930125219030aU,
  0x4f002f1e2fb11e2U, 0x13f43af0cf07f1ecU, 0x1af313c706f307f0U, 0xd13f31ffddf22f7U,
  0xf400f4170e17f3edU, 0xc3f5141ce9040dfaU, 0xeb160bdadcb2f002U, 0xe5392323191c1fe8U,
  0xd9ff0507e7570e27U, 0x5e616101020c8ffU, 0x9061a04f709fa02U, 0x4e80716100108f7U,
  0x205e3f4001e1af8U, 0x4fd3413e1fe0a0aU, 0xfd077fd2012efc02U, 0xfa0d131e170812feU,
  0xe8071f15fae3f4ffU, 0x72cfa1a050624ffU, 0x32eef1fd0fc0421U, 0xd3222117fb08efedU,
  0xf2fc16e50e11dbdeU, 0xeef7e5e615ecf2ffU, 0x13db160bf8f10d22U, 0xefed03f4fff6f702U,
  0xfa08f40706fae10bU, 0x19c60e1df01105e2U, 0xf10e0cea06f22a0fU, 0x80203f1dd2108faU,
  0x1419ea1d28f50900U, 0xee0bfdfb132016f2U, 0xcfaff011d160000U, 0xe005f5e4240f040fU,
  0xfdea17f6e918fb26U, 0xf9e5120b130303e7U, 0xf60c0f07fb12f10aU, 0xfefc06f3f922fffeU,
  0xeaf509ffe4001009U, 0x301f3f1eae8f1eeU, 0x4f72412f41429eeU, 0x170afbe2ec1af322U,
  0x1d1826fff80003e9U, 0x27e8f7f4f4f208f1U, 0xcfbf60afe0b1cfdU, 0xef1ebec09ea09f1U,
  0x1309fef0e3f2f4fcU, 0x1307f703f3f3060eU, 0x4030f0a0e080411U, 0xef1700fefbf3e6e9U,
  0x8f209fa191d23f6U, 0x17f2fd070200ea12U, 0xff0014020e0ef00eU, 0xd0afafbf51e201fU,
  0x16f4120902e80a34U, 0x1b0903060becf7faU, 0x4fce404f8e5f221U, 0xe1ef0cf9f6efe70fU,
  0xf100070a0eeff50aU, 0xeaded5de100beee5U, 0xa1c08f0e101d1feU, 0xf9edf2f503150511U,
  0x2ed0304e10d0603U, 0x301ebf60f0e090bU, 0xfef6f6f10f001208U, 0x1623fc0419fe03edU,
  0x181a010f0e020215U, 0x1e9b01944cbb924U, 0x374065f0c63114c1U, 0xf89d063100acecU,
  0xbda11f5473edc6aU, 0xac59060bcf522508U, 0xe663f4ea45b29465U, 0xfa16b81ff457500bU,
  0xba7fc4adcb633628U, 0xe2c02fa154c1e84eU, 0x22b81f3a9eecacceU, 0xd0bf612aa0f00eabU,
  0xc055d20c3fe05ac5U, 0x67dbf8ffc36b2256U, 0xb095d5fce0aa296U, 0x11a4bf0c0247c961U,
  0x28b7aef6edc706b4U, 0xc73dc29311b1307U, 0xadb3bc1ace5e6263U, 0x623092afeb4ef4fdU,
  0xc86be535ea4136f0U, 0xc7bdc4389b1d5fe3U, 0xdafa200ca3b01e14U, 0x18454b9b5c1ded5bU,
  0x5cfc275dadd2700cU, 0xa4afc054b7107022U, 0x69d770dcfeb049beU, 0xf04a04c3a7b4bc3dU,
  0xe1e8fdab63dcabdbU, 0xb4366146b801a024U, 0xfe3aeb51e0b2cadU, 0x9ab33c541f0415b4U,
  0xcbdfe01e00e55fbcU, 0xfc92e74e5d4772faU, 0x2ea96fdaa49d30acU, 0x23701d73f904abb1U,
  0xf0e6ead4739ddc01U, 0x9d926fbca112a64U, 0xb6472c47c80b19f1U, 0xb44432c9cc5a70e6U,
  0x682468d516c729dfU, 0xbaf53de7fe3edc4fU, 0x3ec84a4bff2c1b2aU, 0x1f2527c0f2377222U,
  0xbea569edd268b4dbU, 0xf2ae0631346aa3d8U, 0xc031fd6f30f6b59U, 0xccaaa0ea0ada36acU,
  0x61b6edd2c2b0ad38U, 0xdad8dfdc6815514dU, 0xd20849d2a7310abbU, 0xded4b04357b31c01U,
  0x656c5e5d591fe9acU, 0x582c70a1c85a689dU, 0xd52efb5a18f148aeU, 0x5ad240c6360651eU,
  0x195d7356d9341afaU, 0x10ab11343d2dce64U, 0x2b6f4d151e5d2cb4U, 0xf90727fae8ce4ed5U,
  0x3a17f32f2d4417a2U, 0x6c1a5cbe459c0dacU, 0x33665013e7b0165aU, 0xd6b0834af332bc3U,
  0xf60e58bcc0fb5320U, 0x73fa470704350d0bU, 0xd9d1d2000cad16d6U, 0x416a4c4c49e3d5c6U,
  0xbfbb602311660964U, 0x5839c5b04704ade7U, 0x2ac5c7fe2657a85cU, 0xf5141a1505e3d9f7U,
  0x2ce8eae527f0051bU, 0xed182a05fded0003U, 0xf927fe1906f9fcc1U, 0xde09dc1e080aebfeU,
  0xf607ece5e802fbafU, 0xf9e7fdc908cfa6f5U, 0xe248ede9110b24a6U, 0xfc30d1f501f8fbd5U,
  0x19fc1f1ce613f631U, 0x20fbd91c1af917f9U, 0x1925e4b6d6dbdeebU, 0x1b2b0af31300181aU,
  0x611d720fde2ea04U, 0x8f6eb0fccc1e105U, 0x3ec00ecec1af708U, 0x1710190f2ff90c14U,
  0x4f823120203edf4U, 0xd180ad1e624190fU, 0x26d3fbd6fffdf9b3U, 0xe1f7e6ef12ecc70eU,
  0xfcf3f51a000817e9U, 0xfc0de8171806060cU, 0x1f14fcf8032f391bU, 0x8c81d9fd05450769U,
  0xec0bfce5f717ea06U, 0xfb0412f901ef0321U, 0xdce9050deb0413f5U, 0xa1dfceffc160636U,
  0xff6da17f513e4ddU, 0x2bf3161b13eeeef5U, 0xfe3f6f8e6e916e9U, 0xe3ec23270a0aec1dU,
  0x251d1e10fef2fe15U, 0x18e00cfc09361818U, 0x14e505ecee22ff26U, 0xfcc5f9f10a1ae817U,
  0xf2ff0f01edff1d06U, 0xd1b09e1fe100ef4U, 0x6fdfbefff02e206U, 0xe5f5ff05e8fd0f0dU,
  0xdffb0bdee4f7ecf5U, 0x1f10b0ee5f5f7f6U, 0x1c1dd911eff8f80aU, 0x1de5eff6dc1412feU,
  0xf824e7fa0410e8e4U, 0xf8bfedd8eff6e3ecU, 0x18e7fd01f506110fU, 0xef0cf913f3fb020aU,
  0xfbdff0141b0f19f1U, 0x3090b16f20ee0e1U, 0xe9040c14e200e7ddU, 0x1d00e4f812e70706U,
  0xf6eb060c00e81de7U, 0xebe9efe6ef101600U, 0x2b1b3114faff0911U, 0x1c29042e31e7ebf6U,
  0x15f8e1e5fa282d3fU, 0x3f10e09e1e810edU, 0x207edfce0e4e5f1U, 0xeee6f80fff060de0U,
  0xfc06f206ee0ae7fcU, 0x8f30017e9eb21f6U, 0x128f604fe08eefbU, 0xfe308eaf803060aU,
  0xf0c238ea0ff0f3fbU, 0xf5f9edf809e9f4f3U, 0xb1200e4dbffde13U, 0x2af90bed01efeb05U,
  0xf63de2080c2402e4U, 0xfb09040cfb07fe19U, 0xf8fb16fcedf9ec03U, 0xaeaeefd0fedeef9U,
  0x1313181efbe504ffU, 0xf3203521ed0a27f2U, 0x13fe0f0f1773e6e2U, 0x206ccbff6cc61210U,
  0xf8eaf2f61814c2f6U, 0xdf0bf6eff1eef61bU, 0x103f80df600ee1eU, 0xea0bf4fd25ed1713U,
  0xff60d0bea0bebU, 0xf1ef02f802f7f506U, 0xefdff9f2e1de0506U, 0x251b0be7f2d8db24U,
  0xbfaf3eee7ebdb12U, 0xeff1fefd0eee1112U, 0xc402000310ef0e11U, 0x22d9f1c4fb6e0101U,
  0x2ce0d200f6facb1bU, 0xb02edf6ff160f07U, 0x808f900f70a02fdU, 0xb4f313e70cf40bf8U,
  0xfebffc397d7fe925U, 0xf532dbfb1e04bef4U, 0xc0710f3f20bf1fdU, 0xf50b15f3e417ff10U,
  0xfa040dfffcfbfdf3U, 0xff6f3ec0d0a0d0aU, 0xc19e2f9130e0e13U, 0xfff708f41210ea15U,
  0xf8f2fceef6ea0d09U, 0xdf6f1ef0706eff0U, 0xea12fd040a0a13edU, 0x10f0ed100ffe0610U,
  0xfaf0f212faef0c13U, 0x613fd011ef8fe0cU, 0x6fc04f6ef1604f5U, 0xf007f20cfff41003U,
  0x14f50aea05f40df0U, 0xf0040607f3f904f1U, 0x9fa0014f4ef0112U, 0xfaf7f2ffecf604f2U,
  0xff141210f0fd07ffU, 0x5fc10f3ebf40bebU, 0xf2140503f20905f5U, 0xeed5fa05ecf5f709U,
  0x10f80516fe0ae90bU, 0xeff0f1fbfaf50908U, 0xf7ed03fdee020e0dU, 0xfffbf90500ed05f7U,
  0x14feeefcebf60d03U, 0xe0507ebf2fbff09U, 0xfff1fff6f1110aedU, 0xf4fcfcfd02f3fcf4U,
  0x1bddec02f6070dfdU, 0x34ef5df70307f7U, 0x2f10bf6140f1a03U, 0xffb09f909eb1107U,
  0xeaed110bf7ff09ecU, 0xb0d04f90306fdfaU, 0x1007f0edef03f80fU, 0xeaf6ebfbebecf503U,
  0x710fb0806eb12f1U, 0xff4f9f8fdfefe0fU, 0xf2f30ff8f20eeff0U, 0x10f206f00f030107U,
  0xf5f71703040e08fcU, 0x4f6eb0ef5f504fcU, 0x2cf5eaf10aef0efaU, 0x63f428ffdb60d89eU,
  0xca5f67f8b5340bcfU, 0x4da4af4a2bf2b2d7U, 0x5d5e5762ceace111U, 0x5e960de4fee70403U,
  0x70b43a61aa993fdeU, 0x94e74c015862d1c5U, 0x76a8b028ce1c428dU, 0xb7492289f9546536U,
  0xcb57fd235322f136U, 0x3363e61d3c5dbe9U, 0xb6203fe7755e6c6dU, 0xe72dbf2417132bc9U,
  0x6922c3572fa60b32U, 0x5fcf6306b8dea85fU, 0xc02f8f95afbcf19U, 0xec9712d649dfd8f1U,
  0xe7d2b5f7621b0135U, 0xb658d30f5aabf113U, 0x9bbb19185b27c7baU, 0xbf41d2c050b1f26aU,
  0xd6541d68f64aba4cU, 0x610122073842e2f2U, 0x10cb4ec1b41f5895U, 0x3863a6a3d581acafU,
  0xf642a61763f3e2aeU, 0xb0b0b3dc11686fa6U, 0x2653b20e646060c9U, 0xbff0ba99ff67fa6fU,
  0xf1361b31e21b4103U, 0xec00cf526d1aedc2U, 0x4ba535d2222d2254U, 0x2afa04d9234b490fU,
  0x2465c60ce048c8b6U, 0xfb45282cfb2d10c2U, 0x499cd5d7a29f0b6aU, 0x690e7aa92fa4fdd8U,
  0x13650d270b102fedU, 0xf818cb9e55afc5b4U, 0x4e226a2952283f56U, 0xc96702e063c82505U,
  0x494bf9ae3864f772U, 0xac06d7ed43d7adf9U, 0x633e22682a4a1260U, 0xf16a2db640a4b83eU,
  0x151f6ccf32cdbf1bU, 0xddd7b9e9583730aaU, 0x2c27c56bc9ecca17U, 0x2c1a3541db00b42cU,
  0xe050d00de662ae9eU, 0xca3c5637aed613cfU, 0xdbb2b4d1396bdaf5U, 0xe808a5fef2a4f9a6U,
  0x6fa4a6de08b8c4f4U, 0x117652d8d7fec4efU, 0x6a6f335be1c97318U, 0x3399b809754e2b52U,
  0x766fbba76124297bU, 0x43bbd8a64cbed761U, 0xd3c04c32bb73a442U, 0x6e17b2c7bf73dd37U,
  0xb1a45a50dd5615ffU, 0x9e2411a8ae4f21e0U, 0x6e0e3ea1d60f98a1U, 0x5ccf104ec973df16U,
  0x972bb75c3d1128c7U, 0x19fcd918cce50fd3U, 0xd62a19836be0036U, 0xf1e274b9fbbf162bU,
  0xdbc719264130201U, 0xe010516529abbaa5U, 0x38d8d43ffbfb3b0fU, 0xf32ff4ede30fdc0bU,
  0x55ed0508785ad5f0U, 0xd1013bec1d24ed0eU, 0xf1d92874252217beU, 0xeb3961eeea12eaecU,
  0xe7f1eff63c884241U, 0xf60c2afc0ff6d214U, 0x210d32bea38b406U, 0x160502f210fdfbecU,
  0x7f03054233e4091bU, 0xd0fd07f5ff16ddf9U, 0xabe8fbe2140dfe2cU, 0x5242b24f0dbedfcU,
  0xf702ea1af8067f24U, 0xe3daee1307d019e4U, 0xf528de01e50ef7e9U, 0x1430fc80fee11f5U,
  0x610d04fd7d03f306U, 0x1c101b4706b054e9U, 0x413face1aebc8ebU, 0x19dee80fcce41e23U,
  0x1104c4bfd929fa1aU, 0xe506c3da9ef1c610U, 0xe840eb36e1527876U, 0xcfde1112e6d0181cU,
  0xedfb0b1039041b01U, 0x20f0d0ff3e7fa29U, 0xd115f23bec24ff03U, 0x2408e505f824192aU,
  0xe3eaf9fd12100c04U, 0x2eead6e2cc0312f8U, 0x9f81de0f31c1bd3U, 0xd2c214f527e7f9f2U,
  0x4f50e2916f9fefaU, 0xd23ee0cf21cfdecU, 0xe2bf9efbd12625cfU, 0xf9fcfbebf20727eeU,
  0x607fce3e821ff1eU, 0x2f11ef701250b2aU, 0xede5e7f805df120dU, 0xf600e90ff91c22f3U,
  0x25f13829edeaf0e1U, 0x12f0ec0012291823U, 0x200fe709033ada0cU, 0xea45e8e5223cfa00U,
  0xe4daf8081c181eeaU, 0xda1fed111318f62fU, 0x26e60b08f1db1717U, 0xf320f1e1ddf91b0cU,
  0x2fa0b180b24ffe5U, 0xe40209f5e924e9dcU, 0xdde0f5dbdbf9f514U, 0xfcefe3cb2529f90aU,
  0x1f5f1e5f621dcebU, 0x13cf2e31180e1a12U, 0x29b5a3fecd063c28U, 0x8fcf11817dc100eU,
  0x1e08e1e6e5e3e30cU, 0xfd0c0113ec060000U, 0x1cf800e918de1909U, 0x61f07fa03e5edeaU,
  0x81ee4f223f20c08U, 0x2313d6d3ed043d17U, 0xd021cf713133c2cU, 0x23f91d00130847eeU,
  0xd22401f30d9e7edU, 0xb0f1f210c0606U, 0x22d7eafcd6e21b35U, 0x10dabbf4bda0cef6U,
  0x62f100724f7042dU, 0xf0ff11f02612fedfU, 0x536d8ceeb3104ffU, 0x1de7faf3fd3ad0c5U,
  0xe7d9d50c2f2f1428U, 0xe5c1e5dddde2ebfdU, 0x12e3f31c4be9e118U, 0x9e9f9e513fa06eaU,
  0xf2f8f306fdf1dbddU, 0x2909dfe9f22b1510U, 0xe6f9ea0af7f4e820U, 0x317f4e1f5e7d89eU,
  0x717f34612471206U, 0xc7facded1ef9f729U, 0x14f501130b0629fbU, 0x2e051018ff1b2728U,
  0x170720e204220ceaU, 0xee32ee2f0cfdfa19U, 0xd01de8e8132105f4U, 0x7c8ef147fbce804U,
  0xd2f1f1130d270e06U, 0x34e2f2fc19f8e708U, 0xef320e0b0926151dU, 0xdf30ff490617de1aU,
  0x7d4ef1ffe12db0eU, 0xf70413fa08e710f6U, 0xe3190bd0dcfa06feU, 0x1ffaf2f100042b09U,
  0xc70fe70112060d0cU, 0xeee6f70f2733d622U, 0x2e0527ee240f1a12U, 0xecff151a14eb0f10U,
  0xfc0e0c0fe7f1fb29U, 0x3a0cfa20080b41f3U, 0xed1ce2fbfc1d0226U, 0x7f4111737f826fbU,
  0xef09ecdedada0ae4U, 0xeb081204f6deebfcU, 0xe1dce0050dfaf1e6U, 0xe7eeef0e1afcfe17U,
  0xeaf11623e1ea0cf6U, 0xeebecf1fa03defeU, 0xae3192303fdeceaU, 0x18010d16000eff00U,
  0xf30319ec1001f109U, 0xf7d7fe062d09e0f2U, 0x1d0800e506c8dff9U, 0xfaf4e4e7fff90af9U,
  0xf9ec0c0aec12f80aU, 0xb1404f4ffed1c01U, 0xf6eae91617f113f3U, 0xe90cfbeb0610f216U,
  0x2f22ee04f20cf0f2U, 0x16152e061bf51703U, 0xee1a0111151de8ffU, 0x100bf7052b110311U,
  0x2020083c0f13efeeU, 0x19f20aedecfd03ebU, 0xe61d2012f308fd09U, 0xf103ebefe70f130fU,
  0xff5fc0ded05e6e5U, 0xfe1b10ede601f718U, 0xe7dafef3f8f9e916U, 0x1ae7fc01140c08f0U,
  0x30ae0e8f5ed06eeU, 0x1318f9e3dff3f70bU, 0x2401eefaef0812f6U, 0x17f7f104f5ec04U,
  0xf6100d2113fa04e6U, 0xee07f6220e1602ecU, 0xe8d3f81decf81ff8U, 0x5e40110eee82413U,
  0xf500091d141509ddU, 0x10f70e1411ea042eU, 0xf16bdde4f466112aU, 0x4ecbecf20e15eefaU,
  0x3607cdd9f57fb910U, 0xee12ef06f2fb0604U, 0xe20a01fcf1fee503U, 0x1df219fd0cf3ea08U,
  0x1009e4180603e6f5U, 0x6130a08f60dffebU, 0xedc83ee0faf6fc15U, 0x7f7e71ff9ea001cU,
  0xd2ceec38614032d8U, 0x1bd80d1bdb13f40cU, 0xf1f5e5f5091d08f8U, 0x448f1e8d80812ebU,
  0x1102ea150fee13c7U, 0xfefd064011e93100U, 0xfcdbf6fdf5eeed0eU, 0xeefc0802111b22edU,
  0x6777ea22be03110eU, 0xbeaed2adfeee91aU, 0xf4e5f60812550108U, 0xe4f8120ef6e11200U,
  0xec000ce8eb16f8f9U, 0x7fe15faff2613e6U, 0xeb0ff408eaecf507U, 0xddfcf2060725d7f8U,
  0x410141203f7f4f6U, 0xf3fdde16e412f514U, 0x1cdefe03120dfcf1U, 0xe7ffe6fbeef4f214U,
  0xc07010108f3ea0bU, 0xfff3f5e0f8f4e7efU, 0x9061017f1251617U, 0x1400e2e2e2e8dfe1U,
  0xdc07dcf4dd02e309U, 0xea1315fdfa1dfeefU, 0xe8e1f4fee0f2f6e9U, 0xe6fd06e60a000cf1U,
  0xe4eedc140c0908f6U, 0x15f4edefe9e61cfaU, 0x161a12e8000ae100U, 0xfaeb07e5d709fa10U,
  0xf902e4f9fff0ea0dU, 0x7ff1207e4020d18U, 0xdbf107edfef505f2U, 0x1403050dfcf91712U,
  0xec1014e2fa0d0feaU, 0xe2e6e9e308e20ff9U, 0xe9eee109120810faU, 0xf016e308ec02ee14U,
  0x5ffee160bf9f5faU, 0xef14040429eb08ecU, 0x1dec1d0a1f2cf65dU, 0xfc1900e518f3ff02U,
  0x16efee090c0cfafcU, 0x1409fbf7ef0311deU, 0xdd00e50bfde00ffcU, 0xf7f916f905e113f3U,
  0xfc07e309f5110607U, 0xef110706080ff10dU, 0xe408060d0aebe1deU, 0xe9f1fb04eceb11e3U,
  0x13fc020f0218e7ecU, 0xfbeefa0909fb2108U, 0xfedf1ddf40ce1e3U, 0xe60dff954cfde317U,
  0x22f6e40500f614faU, 0x1323e91812fd19e7U, 0x24cbcbf40b0105e3U, 0xf3e2e60bdff3f3e1U,
  0x81110cee910af6eeU, 0xc2506f903e906e7U, 0xe32255e5832eeca6U, 0xe907f54af2f716e6U,
  0xf932d028e4f2f3fbU, 0xdf9fc05ed28f629U, 0x7f10ee4e80903ffU, 0x13f70f1618040917U,
  0xae9f9f4d70cf012U, 0xf722e3f6f5f7e1fcU, 0x1fddedb091e2fbe4U, 0x230de1190f0ded2eU,
  0x41e0d1be5da0efcU, 0xeaf808fe13110c10U, 0xf517fed132ef0ff7U, 0xfdfd09d03cd516edU,
  0xeeea11e7e5e008d5U, 0x14030410181aff11U, 0xdcf8e02fe8fd14f4U, 0x1222053131e0faccU,
  0x141ee9bb97f81813U, 0xd8e106f8091218f8U, 0xe31203f211201829U, 0x5ff2ccbe6050af8U,
  0xe6f9e5ee07dadee8U, 0xe0906e2c428e5ebU, 0x7e50002fbec1615U, 0x2fc02f9e0e8ebeaU,
  0x1eef8e1fffeee07U, 0xed0f2612f6fd01ecU, 0x1ce7edf01108080dU, 0xf900fb01fef9060cU,
  0x2b07e0ffe70d00ebU, 0xe70df5191505f902U, 0xfaefe70efaf8f512U, 0xfcf8f40ee3001823U,
  0x803e4fcf3f50ef1U, 0xfaf5f00506fd0efaU, 0xe8e907f0001b020cU, 0xf3d805fee30104d6U,
  0x8effcf51df4f401U, 0xedd6fee6e710f402U, 0xf8e503f311e9e8U, 0xf00307e6ededf5f3U,
  0x318f40eff1b020dU, 0xe4eb0e0b00e4ee1eU, 0xeff2121d1de613U, 0xe5ed0606eb0be500U,
  0x1ef18f901e7090cU, 0x1e8f6f81ef2dcf4U, 0x1efbff12f0171efdU, 0xf81707e71c0a0c28U,
  0xeee10df8f115b9faU, 0xe60f1603eaf10408U, 0x171910ebf01a03f4U, 0xfbfa140b0a031eefU,
  0x20febfbf71102e8U, 0xfc1e0deff9101bfbU, 0x161a1afa0b10f7ffU, 0x20e418fe03f7f70fU,
  0xea05f1e10aee09f7U, 0xf110e9daf519031aU, 0xfd0cec17ff07e10cU, 0xee091206fa02f6f3U,
  0xfc09f1ffef141ef3U, 0x392d50eef00df6f7U, 0xcf66ab5b52d9e420U, 0x5de1e827ceb359b4U,
  0x3e0e1ca169b7f0f4U, 0xbd333de41aa6cf33U, 0xb0bcd7f4b6648896U, 0xebde591545c1d40bU,
  0xee531cdb53dc0909U, 0xe04a3831a94bc8d6U, 0x20d955b1e965af9aU, 0x15118dd0f5cae57U,
  0xaea8c5631631f4a2U, 0x4d56c2f2044cc4d0U, 0xa73f07363fe1f0ecU, 0xfc01fcdfb15dbdccU,
  0x3424054a0430e122U, 0x5cca40f201a5bf24U, 0xbb04d5adb6d2683bU, 0xd0a38b77b205c6eU,
  0x45f828740b050ab9U, 0xe862dde49958f20aU, 0x76da6a129c6c6148U, 0x7d0623ed615d76e2U,
  0xc4ba4b3bbd34e6cfU, 0x18648fbc429fb842U, 0x283aee0c2b428f14U, 0x4cdb60b6f8f20d73U,
  0xfeb6fee1c05dcab8U, 0xe6c6dabc170ce7e4U, 0x44dabbfdfcdb7245U, 0x6a19ad70899109e3U,
  0xb22a650498e4f9f4U, 0xbe22a80538eeafbeU, 0x63b5ac0dd6093569U, 0x3d3eb13a0fc59a19U,
  0x1df15eb04e176339U, 0x9f2e40c6e868f27aU, 0xf2282248f49e7f47U, 0xa70391957e4f34dU,
  0xd6ac15e879ff123bU, 0x2570d59dae0341e2U, 0x2c049ffe2a2260aaU, 0x3557a7f842480da8U,
  0xc4315b3b67f06debU, 0xb0fcd5dae0a3e7fdU, 0x749a3062fc4903caU, 0x1c458643d2bc6f79U,
  0xd42277f1c214a1c1U, 0xa9cfa45628e6e714U, 0x58f6fa37237e4557U, 0xc94952b5c7a43ea3U,
  0xf0326c772b5848c0U, 0xafb5fee3f6d2f7f2U, 0x974e2dec3cda2ab8U, 0x19dd3101d0ed8cdU,
  0xb3421559ef68a863U, 0xf61a1d15aa28cad4U, 0xde3b460a3437733cU, 0x34e76ded36ceb645U,
  0x463ecdef1025dbccU, 0xdc22c4eee2a8dd62U, 0x42e9b2cdff68d6efU, 0x2433a4a41d230dd8U,
  0x48e7bb75436f7ef2U, 0xff54e0d46cf53aa3U, 0xa157645d6a6aa2edU, 0xcd24bbf87596a80aU,
  0x915f1e72b4f136b0U, 0x2b0adc19f24311f2U, 0xe5463a114c0b436bU, 0xe411641815b11474U,
  0x107fffffe2cU, 0xfffffffe0000001fU, 0xfffff9edfffffafbU, 0xac00000060U,
  0x26afffffc8cU, 0xffffff32000002c0U, 0x7cfffff48eU, 0x17effffffc6U,
  0x120fffffb89U, 0x18ffffffdd9U, 0xfffffa71fffffcccU, 0xfffffa8afffffcd8U,
  0xfffffc6700000147U, 0xffffff3dffffffe9U, 0x178fffffa31U, 0xfffffdb300000374U,
  0xfffffd2e0000035eU, 0xffffffa3fffffdccU, 0xe20000010aU, 0x9a00000132U,
  0xffffff95fffffff2U, 0x17400000317U, 0x10fffff973U, 0xffffffd600000186U,
  0x24a00000289U, 0x1ed000001a6U, 0x2b0fffffc98U, 0xfffffc9400000142U,
  0x830000033aU, 0x25bfffff980U, 0x2df000000f7U, 0xfffff8a8fffffe1aU,
  0x181b175158d76429U, 0xb760bf4c1bb5c940U, 0x13b615c2d120fa3aU, 0x26bf48490f22bfc1U,
  0x20642401c1ca50edU, 0xd145f6d865092738U, 0xe26edf1ad2c3b732U, 0xed69d1ee81aba867U,
  0x591e0e051a99103dU, 0x2a258c3703197913U, 0x1b0f13d44bc7d7c2U, 0x51197f4bbe0afc16U,
  0x1027493531271156U, 0x92f4c41a6b29c7c5U, 0x45203dbcf7451c0dU, 0xb6e91b45ccbeae69U,
  0x1bef1df7bffc03f8U, 0x347c37cc26e80ec5U, 0xba24cfcdb4ec4d39U, 0x1ff2164163b4261bU,
  0x29d8e8daf416ef1dU, 0x7f25edbbd1e80afaU, 0xd0ecc84cffe5fc22U, 0x1d23264f983d372eU,
  0x32090eb698c51d4dU, 0x747bed20f6f3f3bbU, 0x3c07e22e48f10b4fU, 0xdaf97fbd6a19eee0U,
  0xc11601dafaebefebU, 0x1ca2e6f5395618edU, 0xc0231dd18ff0bb9U, 0x243db3c8fadad409U,
  0xd9f30e1bcb9795b7U, 0xb3844d145844c269U, 0x8275eb4d4525815bU, 0x8a3e9976076b2bd7U,
  0x9a30f5229b4bba0U, 0xc094d6c11c0bba2aU, 0xca643f52f00ce797U, 0x792eb6306e197381U,
  0x1c0b1ecfbf7f09e5U, 0xed3e3439b83ce137U, 0xc803e246ebfb3a12U, 0xeb4a19d837cabf04U,
  0x2324bbd7abe81954U, 0x5f9db2c1d43181aU, 0xa5601c43e10481bU, 0xcee2425e12dd5258U,
  0x408f02e93c3f9a1dU, 0x960e632e1e31c672U, 0x48bb1db4b1f6f27cU, 0x6a723cd8b4dfa738U,
  0x8de8298451b1aae7U, 0x5cede8b7b7818ef0U, 0x7f10e9a146f77261U, 0xdada9e0d64d68bb5U,
  0x43f0fffde23c2f2aU, 0xffd02bdbcdebc0cbU, 0x1d2c0ad8cdf000c0U, 0x3249f71f3a0e0c20U,
  0x324f00bebd25e445U, 0x7fef1502d4b549d9U, 0xf16fe0fdb4df1454U, 0xd0c33f4f15173bebU,
  0x2dbb163dad01fde8U, 0x3d375d1cfd2b52e0U, 0xc80810b9cd0b1fb7U, 0xb041552ff4d43ac5U,
  0xd10fe7d8450ffdd3U, 0xb5d91e3bf35d2ef4U, 0xb9add93a48d02405U, 0xe00f2abe81ede112U,
  0xc89feedbf63ccbe5U, 0x24796d1ff8e40c24U, 0xc8552eca1c151da5U, 0xaf4ff8a3057f0ad9U,
  0xd4054b3f2a36f1d1U, 0xb045d6cbfb12e01eU, 0xc95f08ee25c32de2U, 0xbffa7e3af7566c70U,
  0xf4cae7d112ccc162U, 0xe67f571f58f82c3bU, 0xe20bc10c3347cbf1U, 0x3f1412ba59650dddU,
  0x22540ad46eff1e2eU, 0xd3b131d9281e3052U, 0x4adf1b4936ada7c0U, 0x52e3af087dfdf36U,
  0x183d35191f81e6edU, 0xdb52da090728c7f6U, 0xedd31ade42da450fU, 0xdb0710f3edb73645U,
  0xee41d8c74537f3d8U, 0x96cab543d4ed30daU, 0xc846f9d1bcac0f3aU, 0xece0ece611f7df20U,
  0xf20ada9fae4e92aaU, 0x2a44f3147d5b71aU, 0x10391fe0ee21bebcU, 0xf648515bc357e9a1U,
  0x5be491648dfa546U, 0xd13732a55b14b4eeU, 0x4a0504b762819ab2U, 0xaee06e11fd41f1cfU,
  0x9a4bda0eee2b38d5U, 0x230d1a25dcee4004U, 0x2ad92900eeeee5c4U, 0xdece41ea082515e3U,
  0xcd0caf2231dd1f9U, 0x517fe6ec0b5a3dU, 0xebe124f6234a4102U, 0xd11a3bb75df652dcU,
  0x8cdf2106bd6aca0dU, 0xe3eeb4aabc949adfU, 0xe52398ad277da918U, 0xfadf8347efffb685U,
  0x248dd81a21bc7d2eU, 0x26008275b03cb07fU, 0xe3fd54023e19c1adU, 0x931cc5aba42c5d4eU,
  0x76412fbb620ae88U, 0xbad2b998001353c5U, 0xde4f57e2412b632bU, 0x1ed94b7e6bae52dU,
